{
  "version": "1.0",
  "truncation": null,
  "padding": null,
  "added_tokens": [
    {
      "id": 0,
      "content": "<|endoftext|>",
      "single_word": false,
      "lstrip": false,
      "rstrip": false,
      "normalized": false,
      "special": true
    }
  ],
  "normalizer": null,
  "pre_tokenizer": {
    "type": "Sequence",
    "pretokenizers": [
      {
        "type": "Digits",
        "individual_digits": true
      },
      {
        "type": "ByteLevel",
        "add_prefix_space": false,
        "trim_offsets": true,
        "use_regex": true
      }
    ]
  },
  "post_processor": null,
  "decoder": {
    "type": "ByteLevel",
    "add_prefix_space": true,
    "trim_offsets": true,
    "use_regex": true
  },
  "model": {
    "type": "BPE",
    "dropout": null,
    "unk_token": null,
    "continuing_subword_prefix": null,
    "end_of_word_suffix": null,
    "fuse_unk": false,
    "byte_fallback": false,
    "ignore_merges": false,
    "vocab": {
      "<|endoftext|>": 0,
      "!": 1,
      "\"": 2,
      "#": 3,
      "$": 4,
      "%": 5,
      "&": 6,
      "'": 7,
      "(": 8,
      ")": 9,
      "*": 10,
      "+": 11,
      ",": 12,
      "-": 13,
      ".": 14,
      "/": 15,
      "0": 16,
      "1": 17,
      "2": 18,
      "3": 19,
      "4": 20,
      "5": 21,
      "6": 22,
      "7": 23,
      "8": 24,
      "9": 25,
      ":": 26,
      ";": 27,
      "<": 28,
      "=": 29,
      ">": 30,
      "?": 31,
      "@": 32,
      "A": 33,
      "B": 34,
      "C": 35,
      "D": 36,
      "E": 37,
      "F": 38,
      "G": 39,
      "H": 40,
      "I": 41,
      "J": 42,
      "K": 43,
      "L": 44,
      "M": 45,
      "N": 46,
      "O": 47,
      "P": 48,
      "Q": 49,
      "R": 50,
      "S": 51,
      "T": 52,
      "U": 53,
      "V": 54,
      "W": 55,
      "X": 56,
      "Y": 57,
      "Z": 58,
      "[": 59,
      "\\": 60,
      "]": 61,
      "^": 62,
      "_": 63,
      "`": 64,
      "a": 65,
      "b": 66,
      "c": 67,
      "d": 68,
      "e": 69,
      "f": 70,
      "g": 71,
      "h": 72,
      "i": 73,
      "j": 74,
      "k": 75,
      "l": 76,
      "m": 77,
      "n": 78,
      "o": 79,
      "p": 80,
      "q": 81,
      "r": 82,
      "s": 83,
      "t": 84,
      "u": 85,
      "v": 86,
      "w": 87,
      "x": 88,
      "y": 89,
      "z": 90,
      "{": 91,
      "|": 92,
      "}": 93,
      "~": 94,
      "¡": 95,
      "¢": 96,
      "£": 97,
      "¤": 98,
      "¥": 99,
      "¦": 100,
      "§": 101,
      "¨": 102,
      "©": 103,
      "ª": 104,
      "«": 105,
      "¬": 106,
      "®": 107,
      "¯": 108,
      "°": 109,
      "±": 110,
      "²": 111,
      "³": 112,
      "´": 113,
      "µ": 114,
      "¶": 115,
      "·": 116,
      "¸": 117,
      "¹": 118,
      "º": 119,
      "»": 120,
      "¼": 121,
      "½": 122,
      "¾": 123,
      "¿": 124,
      "À": 125,
      "Á": 126,
      "Â": 127,
      "Ã": 128,
      "Ä": 129,
      "Å": 130,
      "Æ": 131,
      "Ç": 132,
      "È": 133,
      "É": 134,
      "Ê": 135,
      "Ë": 136,
      "Ì": 137,
      "Í": 138,
      "Î": 139,
      "Ï": 140,
      "Ð": 141,
      "Ñ": 142,
      "Ò": 143,
      "Ó": 144,
      "Ô": 145,
      "Õ": 146,
      "Ö": 147,
      "×": 148,
      "Ø": 149,
      "Ù": 150,
      "Ú": 151,
      "Û": 152,
      "Ü": 153,
      "Ý": 154,
      "Þ": 155,
      "ß": 156,
      "à": 157,
      "á": 158,
      "â": 159,
      "ã": 160,
      "ä": 161,
      "å": 162,
      "æ": 163,
      "ç": 164,
      "è": 165,
      "é": 166,
      "ê": 167,
      "ë": 168,
      "ì": 169,
      "í": 170,
      "î": 171,
      "ï": 172,
      "ð": 173,
      "ñ": 174,
      "ò": 175,
      "ó": 176,
      "ô": 177,
      "õ": 178,
      "ö": 179,
      "÷": 180,
      "ø": 181,
      "ù": 182,
      "ú": 183,
      "û": 184,
      "ü": 185,
      "ý": 186,
      "þ": 187,
      "ÿ": 188,
      "Ā": 189,
      "ā": 190,
      "Ă": 191,
      "ă": 192,
      "Ą": 193,
      "ą": 194,
      "Ć": 195,
      "ć": 196,
      "Ĉ": 197,
      "ĉ": 198,
      "Ċ": 199,
      "ċ": 200,
      "Č": 201,
      "č": 202,
      "Ď": 203,
      "ď": 204,
      "Đ": 205,
      "đ": 206,
      "Ē": 207,
      "ē": 208,
      "Ĕ": 209,
      "ĕ": 210,
      "Ė": 211,
      "ė": 212,
      "Ę": 213,
      "ę": 214,
      "Ě": 215,
      "ě": 216,
      "Ĝ": 217,
      "ĝ": 218,
      "Ğ": 219,
      "ğ": 220,
      "Ġ": 221,
      "ġ": 222,
      "Ģ": 223,
      "ģ": 224,
      "Ĥ": 225,
      "ĥ": 226,
      "Ħ": 227,
      "ħ": 228,
      "Ĩ": 229,
      "ĩ": 230,
      "Ī": 231,
      "ī": 232,
      "Ĭ": 233,
      "ĭ": 234,
      "Į": 235,
      "į": 236,
      "İ": 237,
      "ı": 238,
      "Ĳ": 239,
      "ĳ": 240,
      "Ĵ": 241,
      "ĵ": 242,
      "Ķ": 243,
      "ķ": 244,
      "ĸ": 245,
      "Ĺ": 246,
      "ĺ": 247,
      "Ļ": 248,
      "ļ": 249,
      "Ľ": 250,
      "ľ": 251,
      "Ŀ": 252,
      "ŀ": 253,
      "Ł": 254,
      "ł": 255,
      "Ń": 256,
      "ĠĠ": 257,
      "Ġt": 258,
      "in": 259,
      "ĠĠĠĠ": 260,
      "Ġa": 261,
      "he": 262,
      "re": 263,
      "on": 264,
      "er": 265,
      "at": 266,
      "Ġs": 267,
      "Ġthe": 268,
      "en": 269,
      "or": 270,
      "es": 271,
      "Ġc": 272,
      "it": 273,
      "Ġo": 274,
      "al": 275,
      "nd": 276,
      "is": 277,
      "Ġw": 278,
      "ing": 279,
      "Ġp": 280,
      "Ġf": 281,
      "an": 282,
      "ed": 283,
      "ar": 284,
      "ou": 285,
      "Ġb": 286,
      "ion": 287,
      "ĠĠĠ": 288,
      "Ġin": 289,
      "Ġd": 290,
      "ic": 291,
      "Ġm": 292,
      "Ġof": 293,
      "el": 294,
      "Ġand": 295,
      "Ġto": 296,
      "ĠĠĠĠĠĠĠĠ": 297,
      "le": 298,
      "ro": 299,
      "as": 300,
      "ent": 301,
      "ct": 302,
      "Ġre": 303,
      "et": 304,
      "st": 305,
      "Ġh": 306,
      "Ġth": 307,
      "il": 308,
      "om": 309,
      "Ġe": 310,
      "Ġl": 311,
      "Ġn": 312,
      "ĠĠĠĠĠĠĠ": 313,
      "im": 314,
      "id": 315,
      "ur": 316,
      "se": 317,
      "ol": 318,
      "am": 319,
      "ation": 320,
      "ut": 321,
      "ce": 322,
      "ve": 323,
      "Ġg": 324,
      "ĊĠĠĠĠĠĠĠ": 325,
      "ĠT": 326,
      "ot": 327,
      "ig": 328,
      "ĊĠĠĠĠĠĠĠĠ": 329,
      "ra": 330,
      "Ġis": 331,
      "ch": 332,
      "ow": 333,
      "Ġu": 334,
      "ly": 335,
      "Ġfor": 336,
      "if": 337,
      "ver": 338,
      "Ġ=": 339,
      "ul": 340,
      "Ġst": 341,
      "Ġbe": 342,
      "ĠA": 343,
      "âĢ": 344,
      "ir": 345,
      "od": 346,
      "--": 347,
      "Ġy": 348,
      "ĠS": 349,
      "ĊĠĠĠ": 350,
      "ad": 351,
      "elf": 352,
      "Ġcon": 353,
      "Ġon": 354,
      "ĠC": 355,
      "ith": 356,
      "ĠI": 357,
      "ay": 358,
      "ect": 359,
      "Ġthat": 360,
      "Ġas": 361,
      "ag": 362,
      "Ġde": 363,
      "Ġpro": 364,
      "ate": 365,
      "est": 366,
      "ist": 367,
      "Ġ(": 368,
      "Ġyou": 369,
      "her": 370,
      "ers": 371,
      "ab": 372,
      "Ġwith": 373,
      "em": 374,
      "Ġex": 375,
      "ess": 376,
      "Ġor": 377,
      "um": 378,
      "qu": 379,
      "op": 380,
      "res": 381,
      "nt": 382,
      "ort": 383,
      "Ġit": 384,
      "Ġal": 385,
      "ri": 386,
      "us": 387,
      "Ġwh": 388,
      "Ġv": 389,
      "Ġan": 390,
      "ac": 391,
      "pp": 392,
      "ter": 393,
      "Ġare": 394,
      "Ġcom": 395,
      "ĠM": 396,
      "ies": 397,
      "ĠP": 398,
      "oc": 399,
      "ity": 400,
      "Ġ\"": 401,
      "ke": 402,
      "Ġ'": 403,
      "ĊĠĠĠĠĠĠĠĠĠĠĠ": 404,
      "ore": 405,
      "th": 406,
      "rom": 407,
      "os": 408,
      "and": 409,
      "iv": 410,
      "ĠThe": 411,
      "Ġhe": 412,
      "un": 413,
      "Ġself": 414,
      "ment": 415,
      "ain": 416,
      "ill": 417,
      "pe": 418,
      "ĠB": 419,
      "Ġsu": 420,
      "Ġwe": 421,
      "igh": 422,
      "pt": 423,
      "ive": 424,
      "ant": 425,
      "pl": 426,
      "ld": 427,
      "ial": 428,
      "ĠW": 429,
      "ĠF": 430,
      "Ġr": 431,
      "og": 432,
      "Ġch": 433,
      "ĠH": 434,
      "ame": 435,
      "ure": 436,
      "Ġne": 437,
      "ĠE": 438,
      "ĠN": 439,
      "Ġen": 440,
      "Ġim": 441,
      "ions": 442,
      "ĠD": 443,
      "Ġby": 444,
      "Ġcan": 445,
      "art": 446,
      "----": 447,
      "ĠR": 448,
      "ue": 449,
      "ud": 450,
      "all": 451,
      "Ġle": 452,
      "Ġat": 453,
      "ass": 454,
      "rou": 455,
      "Ġnot": 456,
      "):": 457,
      "ical": 458,
      "Ġfrom": 459,
      "out": 460,
      "Ġha": 461,
      "iz": 462,
      "Ġse": 463,
      "ult": 464,
      "##": 465,
      "ight": 466,
      "Ġsh": 467,
      "ĠL": 468,
      "ine": 469,
      "per": 470,
      "âĢĻ": 471,
      "ge": 472,
      "cl": 473,
      "end": 474,
      "red": 475,
      "our": 476,
      "self": 477,
      "ex": 478,
      "Ġif": 479,
      "Ġthis": 480,
      "ĠG": 481,
      "Ġint": 482,
      "act": 483,
      "port": 484,
      "Ġus": 485,
      "age": 486,
      "one": 487,
      "Ġab": 488,
      "Ġwas": 489,
      "ost": 490,
      "ust": 491,
      "',": 492,
      "Ġres": 493,
      "orm": 494,
      "gh": 495,
      "Ġcont": 496,
      "ome": 497,
      "ff": 498,
      "ard": 499,
      "ile": 500,
      "Ġwor": 501,
      "Ġhave": 502,
      "able": 503,
      "ance": 504,
      "Ġpl": 505,
      "ated": 506,
      "ations": 507,
      "Ġyour": 508,
      "ib": 509,
      "ans": 510,
      "ell": 511,
      "Ġtheir": 512,
      "ip": 513,
      "Ġad": 514,
      "ther": 515,
      "ĠO": 516,
      "ĠâĢ": 517,
      "),": 518,
      "ould": 519,
      "ap": 520,
      "ĊĠĠĠĠĠĠĠĠĠĠĠĠĠĠĠĠ": 521,
      "urn": 522,
      "ous": 523,
      "'s": 524,
      "ide": 525,
      "are": 526,
      "ind": 527,
      "con": 528,
      "Ġcomp": 529,
      "ak": 530,
      "ast": 531,
      "du": 532,
      "Ġ#": 533,
      "Ġwhe": 534,
      "Ġk": 535,
      "Ġdef": 536,
      "ich": 537,
      "ents": 538,
      "ert": 539,
      "cc": 540,
      "Ġdis": 541,
      "ie": 542,
      "Ġthey": 543,
      "ĠU": 544,
      "Ġall": 545,
      "get": 546,
      "ĠTh": 547,
      "ong": 548,
      "ĊĊĠĠĠ": 549,
      "ime": 550,
      "ry": 551,
      "Ġcl": 552,
      "ack": 553,
      "ual": 554,
      "ere": 555,
      "()": 556,
      "ep": 557,
      "ary": 558,
      "ĊĠĠĠĠĠĠĠĠĠĠĠĠĠĠĠ": 559,
      "ign": 560,
      "The": 561,
      "vel": 562,
      "\"\"": 563,
      "int": 564,
      "Ġwill": 565,
      "ru": 566,
      "Ġar": 567,
      "ction": 568,
      "form": 569,
      "Ġun": 570,
      "ear": 571,
      "ase": 572,
      "ice": 573,
      "ence": 574,
      "ount": 575,
      "ress": 576,
      "ok": 577,
      "ob": 578,
      "Ġj": 579,
      "Ġret": 580,
      "ild": 581,
      "ood": 582,
      "ath": 583,
      "ang": 584,
      "Ġwhich": 585,
      "ces": 586,
      "ata": 587,
      "ach": 588,
      "ĠJ": 589,
      "ord": 590,
      "Ġdo": 591,
      "ens": 592,
      "Ġmore": 593,
      "ef": 594,
      "ose": 595,
      "ub": 596,
      "Ġel": 597,
      "ject": 598,
      "ater": 599,
      "Ġapp": 600,
      "av": 601,
      "ors": 602,
      "ia": 603,
      "Ġother": 604,
      "Ġme": 605,
      "Ġhas": 606,
      "ition": 607,
      "ory": 608,
      "Ġev": 609,
      "ake": 610,
      "ace": 611,
      "Ġout": 612,
      "ail": 613,
      "Ġman": 614,
      "Ġabout": 615,
      "ĠIn": 616,
      "':": 617,
      "Ġper": 618,
      "so": 619,
      "nder": 620,
      "ks": 621,
      "--------": 622,
      "Ġreturn": 623,
      "ire": 624,
      ").": 625,
      "ely": 626,
      "reat": 627,
      "ict": 628,
      "Ġcomm": 629,
      "Ġsc": 630,
      "ple": 631,
      "ings": 632,
      "ite": 633,
      "Ġbut": 634,
      "Ġsp": 635,
      "Ġli": 636,
      "ext": 637,
      "Ġ-": 638,
      "__": 639,
      "pec": 640,
      "Ġ[": 641,
      "very": 642,
      "com": 643,
      "vers": 644,
      "==": 645,
      "Ġso": 646,
      "Ġpart": 647,
      "ty": 648,
      "Ġone": 649,
      "Ġthem": 650,
      "Ġsy": 651,
      "ound": 652,
      "Ġte": 653,
      "Ġqu": 654,
      "Ġinto": 655,
      "name": 656,
      "Ġimport": 657,
      "Ġup": 658,
      "ook": 659,
      "Ġthese": 660,
      "('": 661,
      "now": 662,
      "####": 663,
      "ities": 664,
      "Ġpre": 665,
      "erv": 666,
      "au": 667,
      "Ġind": 668,
      "Ġtr": 669,
      "Ġem": 670,
      "âĢĿ": 671,
      "Ġalso": 672,
      "rough": 673,
      "ber": 674,
      "pro": 675,
      "Ġra": 676,
      "ph": 677,
      "ne": 678,
      "iff": 679,
      "Ġro": 680,
      "Ġtra": 681,
      "Ġass": 682,
      "ific": 683,
      "olog": 684,
      "eth": 685,
      "\",": 686,
      "ĠSt": 687,
      "Ġpe": 688,
      "Ġwere": 689,
      "cess": 690,
      "Ġcol": 691,
      "ĊĊĠĠĠĠĠĠĠ": 692,
      "ating": 693,
      "ates": 694,
      "Ġfe": 695,
      "ĠThis": 696,
      "**": 697,
      "Ġunder": 698,
      "Ġour": 699,
      "Ġhow": 700,
      "rib": 701,
      "low": 702,
      "ys": 703,
      "ĊĊ": 704,
      "ient": 705,
      "Ġstud": 706,
      "Ġwho": 707,
      "we": 708,
      "ish": 709,
      "cre": 710,
      "Ġtime": 711,
      "ck": 712,
      "))": 713,
      "ious": 714,
      "Ġsome": 715,
      "Ġwhen": 716,
      "eld": 717,
      "ode": 718,
      "ree": 719,
      "rit": 720,
      "Ġits": 721,
      "Ġbet": 722,
      "cept": 723,
      "ays": 724,
      "ove": 725,
      "Ġmay": 726,
      "Ġnew": 727,
      "ĠK": 728,
      "row": 729,
      "ield": 730,
      "lp": 731,
      "Ġdiff": 732,
      "Ġpr": 733,
      "Ġval": 734,
      "Ġlike": 735,
      "Ġacc": 736,
      "ĠIt": 737,
      "ĠâĢľ": 738,
      "Ġdes": 739,
      "arn": 740,
      "ĠCh": 741,
      "ĠV": 742,
      "Ġcons": 743,
      "ons": 744,
      "ople": 745,
      "Ġover": 746,
      "Ġag": 747,
      "val": 748,
      "ally": 749,
      "lic": 750,
      "Ġwork": 751,
      "pect": 752,
      "ise": 753,
      "Ġgo": 754,
      "clud": 755,
      "les": 756,
      "Ġact": 757,
      "Ġ\"\"\"": 758,
      "ough": 759,
      "Ġthere": 760,
      "arg": 761,
      "Ġhis": 762,
      "Ġrel": 763,
      "ful": 764,
      "ll": 765,
      "ize": 766,
      "Ġuse": 767,
      "Ġthan": 768,
      "']": 769,
      "Ġhelp": 770,
      "Ġinter": 771,
      "ms": 772,
      "ool": 773,
      "ian": 774,
      "Ġsuch": 775,
      "')": 776,
      "Ġtest": 777,
      "Ġob": 778,
      "Ġbec": 779,
      "ures": 780,
      "Ġmod": 781,
      "stem": 782,
      "ĠY": 783,
      "._": 784,
      "ics": 785,
      "Ġknow": 786,
      "ange": 787,
      "Ġspec": 788,
      "In": 789,
      "uring": 790,
      "ĠĠĠĠĠĠĠĠĠĠĠĠĠĠĠĠ": 791,
      "Ġthrough": 792,
      "ener": 793,
      "round": 794,
      "Ġinst": 795,
      "te": 796,
      "ov": 797,
      "ock": 798,
      "irst": 799,
      "Ġrec": 800,
      "Ġpeople": 801,
      "alth": 802,
      "Ġneed": 803,
      "Ġ+": 804,
      "ren": 805,
      "Ġget": 806,
      "Ġadd": 807,
      "hed": 808,
      "ract": 809,
      "Ġeff": 810,
      "Ġbl": 811,
      "Ġprov": 812,
      "ular": 813,
      "Ġsa": 814,
      "(\"": 815,
      "Ġreg": 816,
      "ause": 817,
      "Ġstr": 818,
      "Ġwhat": 819,
      "velop": 820,
      "Ġany": 821,
      "ink": 822,
      "ark": 823,
      "Ġbeen": 824,
      "ility": 825,
      "als": 826,
      "Ġam": 827,
      "['": 828,
      "put": 829,
      "ments": 830,
      "Ġinclud": 831,
      "ative": 832,
      "gr": 833,
      "old": 834,
      "ced": 835,
      "Ġyear": 836,
      "ax": 837,
      "Ġoff": 838,
      "rue": 839,
      "ft": 840,
      "Ġset": 841,
      "Ġrem": 842,
      "ern": 843,
      "ues": 844,
      "Ġtw": 845,
      "mer": 846,
      "ection": 847,
      "Ġph": 848,
      "Ġinv": 849,
      "Ġdiffere": 850,
      "Ġno": 851,
      "Ġatt": 852,
      "app": 853,
      "ps": 854,
      "ric": 855,
      "par": 856,
      "oth": 857,
      "Ġty": 858,
      "iss": 859,
      "Ġdata": 860,
      "Ġpos": 861,
      "ĉĉ": 862,
      "Ġdi": 863,
      "hen": 864,
      "Ġ{": 865,
      "ss": 866,
      "Ġwould": 867,
      "ational": 868,
      "Ġke": 869,
      "Ġsub": 870,
      "ible": 871,
      "its": 872,
      "Ġfl": 873,
      "own": 874,
      "de": 875,
      "Ġprodu": 876,
      "Ġused": 877,
      "ween": 878,
      "arch": 879,
      "Ġbu": 880,
      "Ġhad": 881,
      "def": 882,
      "Ġ%": 883,
      "fter": 884,
      "Ġinf": 885,
      "ices": 886,
      "ower": 887,
      "Ġdevelop": 888,
      "pport": 889,
      "Ġmost": 890,
      "ick": 891,
      "chn": 892,
      "ĠUn": 893,
      "Ġnum": 894,
      "ix": 895,
      "Ġtrans": 896,
      "Ġbetween": 897,
      "Ġonly": 898,
      "Ġsystem": 899,
      "ror": 900,
      "Ġvar": 901,
      "ased": 902,
      "Ġrequ": 903,
      "Ġac": 904,
      "ribut": 905,
      "oint": 906,
      "set": 907,
      "stand": 908,
      "ied": 909,
      "str": 910,
      "ĠĠĠĠĠ": 911,
      "vent": 912,
      "from": 913,
      "Ġexpl": 914,
      "Ġexam": 915,
      "Ġlearn": 916,
      "ines": 917,
      "Ġfirst": 918,
      "Ġwhere": 919,
      "erm": 920,
      "cy": 921,
      "ĠNone": 922,
      "Ġmany": 923,
      "ĊĠĠĠĠĠĠĠĠĠĠĠĠĠĠĠĠĠĠĠ": 924,
      "Ġcre": 925,
      "hes": 926,
      "wn": 927,
      "Ġpers": 928,
      "sh": 929,
      "ont": 930,
      "Ġpol": 931,
      "iew": 932,
      "ĠâĢĵ": 933,
      "ident": 934,
      "Ġresult": 935,
      "sc": 936,
      "ature": 937,
      "path": 938,
      "up": 939,
      "Ġsur": 940,
      "Ġexper": 941,
      "els": 942,
      "ural": 943,
      "Ġform": 944,
      "Ġshould": 945,
      "ife": 946,
      "Ġ==": 947,
      "..": 948,
      "Ġchild": 949,
      "Ġtwo": 950,
      "Ġco": 951,
      "Ġexp": 952,
      "ists": 953,
      "ten": 954,
      "Ġhealth": 955,
      "ond": 956,
      "ience": 957,
      "ec": 958,
      "Ġcall": 959,
      "ting": 960,
      "gan": 961,
      "oci": 962,
      "ble": 963,
      "Ġcould": 964,
      "Ġdisc": 965,
      "vir": 966,
      "Ġevery": 967,
      "Ġsign": 968,
      "Ġsm": 969,
      "ential": 970,
      "aking": 971,
      "read": 972,
      "ages": 973,
      "Ġsim": 974,
      "Ġfun": 975,
      "eng": 976,
      "ily": 977,
      "ork": 978,
      "assert": 979,
      "Ġher": 980,
      "ives": 981,
      "ins": 982,
      "\")": 983,
      "erg": 984,
      "],": 985,
      "ng": 986,
      "Ġcommun": 987,
      "Ġdifferent": 988,
      "type": 989,
      "oy": 990,
      "fore": 991,
      "ness": 992,
      "Ġworld": 993,
      "ism": 994,
      "Ġcount": 995,
      "ology": 996,
      "Ġref": 997,
      "====": 998,
      "Ġeven": 999,
      "ruct": 1000,
      "ward": 1001,
      "ants": 1002,
      "Ġtechn": 1003,
      "ever": 1004,
      "Ġpres": 1005,
      "Ġwhile": 1006,
      "Ġins": 1007,
      "qual": 1008,
      "tt": 1009,
      "uc": 1010,
      "Ġresp": 1011,
      "Ġdist": 1012,
      "aw": 1013,
      "Ġhigh": 1014,
      "Ġdet": 1015,
      "Ġwell": 1016,
      "Ġart": 1017,
      "uth": 1018,
      "'t": 1019,
      "Ġconf": 1020,
      "----------------": 1021,
      "to": 1022,
      "Ġent": 1023,
      "alse": 1024,
      "iqu": 1025,
      "Ġprocess": 1026,
      "########": 1027,
      "Ġ_": 1028,
      "Ġcur": 1029,
      "Ġjust": 1030,
      "Ġloc": 1031,
      "ade": 1032,
      "Ġhum": 1033,
      "Ġext": 1034,
      "Ġmake": 1035,
      "formation": 1036,
      "Ġeach": 1037,
      "Ġed": 1038,
      "led": 1039,
      "ethod": 1040,
      "Ġpat": 1041,
      "ically": 1042,
      "ption": 1043,
      "ized": 1044,
      "Ġwater": 1045,
      "other": 1046,
      "Ġmed": 1047,
      "ĠRe": 1048,
      "ĠHe": 1049,
      "Ġpar": 1050,
      "ution": 1051,
      "tern": 1052,
      "Ġ:": 1053,
      "ew": 1054,
      "Ġusing": 1055,
      "Ġdec": 1056,
      "Ġsee": 1057,
      "uch": 1058,
      "arm": 1059,
      "St": 1060,
      "ivid": 1061,
      "ts": 1062,
      "Ġgener": 1063,
      "Ġrese": 1064,
      "Ġthose": 1065,
      "ource": 1066,
      "pr": 1067,
      "Ġduring": 1068,
      "Ġname": 1069,
      "Ġread": 1070,
      "ollow": 1071,
      "ving": 1072,
      "Ġgra": 1073,
      "ited": 1074,
      "py": 1075,
      "ER": 1076,
      "Ġsk": 1077,
      "Ġfound": 1078,
      "Ġcomple": 1079,
      "Ġunderstand": 1080,
      "rent": 1081,
      "ning": 1082,
      "Ġbel": 1083,
      "Ġeffect": 1084,
      "file": 1085,
      "ody": 1086,
      "Ġche": 1087,
      "att": 1088,
      "Ġclass": 1089,
      "ĠWh": 1090,
      "atch": 1091,
      "Ġback": 1092,
      "ense": 1093,
      "ement": 1094,
      "ublic": 1095,
      "Ġafter": 1096,
      "roup": 1097,
      "lo": 1098,
      "Ġelse": 1099,
      "viron": 1100,
      "ĠIf": 1101,
      "ety": 1102,
      "imes": 1103,
      "io": 1104,
      "Ġyears": 1105,
      "Ġthen": 1106,
      "ĠWe": 1107,
      "lect": 1108,
      "Ġhist": 1109,
      "ug": 1110,
      "Ġlong": 1111,
      "data": 1112,
      "Th": 1113,
      "ien": 1114,
      "Ġpartic": 1115,
      "ually": 1116,
      "irect": 1117,
      "Ġway": 1118,
      "mod": 1119,
      "cont": 1120,
      "Ġca": 1121,
      "ases": 1122,
      "pos": 1123,
      "Ġincre": 1124,
      "Ġbecause": 1125,
      "chool": 1126,
      "='": 1127,
      "class": 1128,
      "add": 1129,
      "ĠPro": 1130,
      "Ġmy": 1131,
      "ved": 1132,
      "Ġlead": 1133,
      "ĠFor": 1134,
      "Ġgl": 1135,
      "Ġfind": 1136,
      "Ġright": 1137,
      "ave": 1138,
      "Ġcent": 1139,
      "ves": 1140,
      "ĠCom": 1141,
      "dition": 1142,
      "line": 1143,
      "Ġfam": 1144,
      "ier": 1145,
      "Ġstart": 1146,
      "br": 1147,
      "Ġown": 1148,
      "over": 1149,
      "Ġ`": 1150,
      "gram": 1151,
      "meric": 1152,
      "Ġdel": 1153,
      "Ġfact": 1154,
      "Ġmain": 1155,
      "ering": 1156,
      "Ġshe": 1157,
      "ĠAs": 1158,
      "test": 1159,
      "Ġend": 1160,
      "ify": 1161,
      "arly": 1162,
      "Ġcar": 1163,
      "Ġboth": 1164,
      "Ġperson": 1165,
      "Ġfollow": 1166,
      "any": 1167,
      "Ġlife": 1168,
      "Ġop": 1169,
      "ale": 1170,
      "ĠHow": 1171,
      "ser": 1172,
      "Ġdoes": 1173,
      "Ġmin": 1174,
      "ault": 1175,
      "Ġwithin": 1176,
      "inal": 1177,
      "ĠThey": 1178,
      "Ġbeing": 1179,
      "ĠAl": 1180,
      "Ġgrow": 1181,
      "Ġserv": 1182,
      "Ġprovid": 1183,
      "Ġinformation": 1184,
      "ĊĠĠĠĠĠĠĠĠĠĠĠĠĠĠĠĠĠĠĠĠĠĠĠĠ": 1185,
      "ray": 1186,
      "Ġpass": 1187,
      "])": 1188,
      "Ġappro": 1189,
      "Ġsom": 1190,
      "Ġav": 1191,
      "anc": 1192,
      "Ġsol": 1193,
      "True": 1194,
      "Ġx": 1195,
      "ĠEx": 1196,
      "ather": 1197,
      "Ġvalue": 1198,
      "Ġbefore": 1199,
      "gg": 1200,
      "rol": 1201,
      "ds": 1202,
      "Ġallow": 1203,
      "Ġpract": 1204,
      "ĠAmeric": 1205,
      "Ġassert": 1206,
      "ividual": 1207,
      "Ġmight": 1208,
      "Ġlist": 1209,
      "ands": 1210,
      "\":": 1211,
      "Ġimportant": 1212,
      "cent": 1213,
      "Ġcontin": 1214,
      "Ġlevel": 1215,
      "itions": 1216,
      "ired": 1217,
      "nce": 1218,
      "Ġcor": 1219,
      "Ġshow": 1220,
      "work": 1221,
      "hip": 1222,
      "Ġsupport": 1223,
      "uss": 1224,
      "ined": 1225,
      "ape": 1226,
      "Ġaround": 1227,
      "Ġser": 1228,
      "nect": 1229,
      "Ġrep": 1230,
      "args": 1231,
      "ON": 1232,
      "fo": 1233,
      "Ġcult": 1234,
      "ĠAn": 1235,
      "onse": 1236,
      "ĊĠĠĠĠĠ": 1237,
      "Ġ*": 1238,
      "Ġvis": 1239,
      "ross": 1240,
      "Ġpower": 1241,
      "ets": 1242,
      "der": 1243,
      "ull": 1244,
      "Ġlook": 1245,
      "Ġpop": 1246,
      "Ġdep": 1247,
      "ization": 1248,
      "Ġstate": 1249,
      "min": 1250,
      "Ġmon": 1251,
      "ator": 1252,
      "Ġfood": 1253,
      "Ġbr": 1254,
      "Ġindividual": 1255,
      "Ġdesign": 1256,
      "ional": 1257,
      "Ġimp": 1258,
      "ital": 1259,
      "Ġmem": 1260,
      "vironment": 1261,
      "ger": 1262,
      "IN": 1263,
      "air": 1264,
      "ĠThese": 1265,
      "Ġmuch": 1266,
      "Ġvery": 1267,
      "Ġoften": 1268,
      "not": 1269,
      "Ġbuild": 1270,
      "Ġexample": 1271,
      "ames": 1272,
      "Ġprot": 1273,
      "akes": 1274,
      "Ġeng": 1275,
      "Ġactiv": 1276,
      "Ġgu": 1277,
      "Ġcare": 1278,
      "ox": 1279,
      "ware": 1280,
      ".,": 1281,
      "ocial": 1282,
      "Ġmust": 1283,
      "Ġdown": 1284,
      "und": 1285,
      "Ġcalled": 1286,
      "Ġreal": 1287,
      "ĠAr": 1288,
      "ids": 1289,
      "ared": 1290,
      "Ġsame": 1291,
      "ven": 1292,
      "Ġchar": 1293,
      "ateg": 1294,
      "ivers": 1295,
      "ining": 1296,
      "Ġplay": 1297,
      "Ġstudy": 1298,
      "arent": 1299,
      "Ġstudents": 1300,
      "Ġmethod": 1301,
      "Ġfil": 1302,
      "Ġorgan": 1303,
      "raph": 1304,
      "pes": 1305,
      "itt": 1306,
      "ĊĠĠĠĠĠĠĠĠĠĠĠĠĠĠĠĠĠĠĠĠĠĠĠĠĠĠĠĠĠĠĠĠ": 1307,
      "import": 1308,
      "Ġtype": 1309,
      "Er": 1310,
      "Ġtry": 1311,
      "ument": 1312,
      "ources": 1313,
      "ĠYou": 1314,
      "ories": 1315,
      "Ġconst": 1316,
      "Ġmade": 1317,
      "Ġagain": 1318,
      "ash": 1319,
      "Ġproble": 1320,
      "Ġadv": 1321,
      "ci": 1322,
      ".\"": 1323,
      "ider": 1324,
      "the": 1325,
      "Ġident": 1326,
      "requ": 1327,
      "Ġbre": 1328,
      "ars": 1329,
      "AT": 1330,
      "url": 1331,
      "Wh": 1332,
      "Ġsmall": 1333,
      "Ġarg": 1334,
      "be": 1335,
      "ished": 1336,
      "Ċĉ": 1337,
      "Ġnumber": 1338,
      "Ġredu": 1339,
      "mon": 1340,
      "Ġprint": 1341,
      "Error": 1342,
      "Ġhuman": 1343,
      "Ġchildren": 1344,
      "ĠAd": 1345,
      "Ġposs": 1346,
      "Ġfield": 1347,
      "Ġpot": 1348,
      "Ġobject": 1349,
      "day": 1350,
      "Ġmet": 1351,
      "Ġprogram": 1352,
      "Ġkey": 1353,
      "Ġschool": 1354,
      "Ġtake": 1355,
      "ank": 1356,
      "ret": 1357,
      "Ġsaid": 1358,
      "ples": 1359,
      "Ġcle": 1360,
      "ability": 1361,
      "ains": 1362,
      "Ġgood": 1363,
      "Ġcreat": 1364,
      "Ġinc": 1365,
      "list": 1366,
      "Ġless": 1367,
      "ination": 1368,
      "fig": 1369,
      "ĠInd": 1370,
      "Ġbody": 1371,
      "Ċĉĉ": 1372,
      "ĠSe": 1373,
      "Ġcreate": 1374,
      "ner": 1375,
      "date": 1376,
      "ccess": 1377,
      "Ġday": 1378,
      "ince": 1379,
      "ead": 1380,
      "Ġtreat": 1381,
      "Ġtem": 1382,
      "Ġer": 1383,
      "Ġlog": 1384,
      "ĠInt": 1385,
      "ask": 1386,
      "Ġnow": 1387,
      "por": 1388,
      "âĢĶ": 1389,
      "ulation": 1390,
      "Ġfunction": 1391,
      "ĠBy": 1392,
      "\"\"\"": 1393,
      "Ġpoint": 1394,
      "ES": 1395,
      "cur": 1396,
      "Ġaff": 1397,
      "Ġfile": 1398,
      "version": 1399,
      "angu": 1400,
      ".âĢĿ": 1401,
      "Ġthink": 1402,
      "Ġthough": 1403,
      "Ġbeh": 1404,
      "count": 1405,
      "ĊĠ": 1406,
      "Ġgover": 1407,
      "ries": 1408,
      "view": 1409,
      "Ġresearch": 1410,
      "=\"": 1411,
      "omen": 1412,
      "for": 1413,
      "iter": 1414,
      "Ġplan": 1415,
      "Ġquest": 1416,
      "ision": 1417,
      "aterial": 1418,
      "Ġest": 1419,
      "Ġhand": 1420,
      "key": 1421,
      "col": 1422,
      "less": 1423,
      "inst": 1424,
      "Ġincluding": 1425,
      "ately": 1426,
      "Ġiss": 1427,
      "ule": 1428,
      "Ġris": 1429,
      "ĠCon": 1430,
      "Ġcommon": 1431,
      "Ġinvol": 1432,
      "AR": 1433,
      "xt": 1434,
      "itive": 1435,
      "append": 1436,
      "ams": 1437,
      "None": 1438,
      "li": 1439,
      "ergy": 1440,
      "sel": 1441,
      "Ġocc": 1442,
      "ĠBut": 1443,
      "ertain": 1444,
      "acter": 1445,
      "ique": 1446,
      "Ġcell": 1447,
      "value": 1448,
      "bers": 1449,
      "ute": 1450,
      "Ġcour": 1451,
      "Ġwrit": 1452,
      "Ġwithout": 1453,
      "iven": 1454,
      "Ġ<": 1455,
      "erest": 1456,
      "Ġopen": 1457,
      "ats": 1458,
      "iness": 1459,
      "Ġdid": 1460,
      "az": 1461,
      "Ġdirect": 1462,
      "ified": 1463,
      "by": 1464,
      "ah": 1465,
      "Ġsignific": 1466,
      "atic": 1467,
      "Ġgen": 1468,
      "``": 1469,
      "Ġenvironment": 1470,
      "ively": 1471,
      "Ġ**": 1472,
      "Ġchang": 1473,
      "hers": 1474,
      "Ġeduc": 1475,
      "Ġanal": 1476,
      "Ġchall": 1477,
      "Ġsocial": 1478,
      "sy": 1479,
      "//": 1480,
      "fil": 1481,
      "Ġvarious": 1482,
      "ances": 1483,
      "Ġline": 1484,
      "Ġopt": 1485,
      "Ġwant": 1486,
      "Ġ)": 1487,
      "ote": 1488,
      "Ġchange": 1489,
      "Equal": 1490,
      "me": 1491,
      "mb": 1492,
      "Ġproject": 1493,
      "ral": 1494,
      "Ġide": 1495,
      "ĠQ": 1496,
      "man": 1497,
      "way": 1498,
      "opy": 1499,
      "Ġimpro": 1500,
      "util": 1501,
      "iving": 1502,
      "land": 1503,
      "Ġmat": 1504,
      "ends": 1505,
      "ron": 1506,
      "atus": 1507,
      "alk": 1508,
      "oring": 1509,
      "Ġgovern": 1510,
      "Ġdise": 1511,
      "ery": 1512,
      "ems": 1513,
      "oss": 1514,
      "OR": 1515,
      "Ġproduct": 1516,
      "ĠAnd": 1517,
      "ered": 1518,
      "co": 1519,
      "cri": 1520,
      "son": 1521,
      "Ġvari": 1522,
      "raw": 1523,
      "cing": 1524,
      "Ġdev": 1525,
      "Ġgre": 1526,
      "Ġcap": 1527,
      "Ġproper": 1528,
      "Ġet": 1529,
      "Ġexcept": 1530,
      "Ġens": 1531,
      "log": 1532,
      "iod": 1533,
      "Ġlearning": 1534,
      "Ġlet": 1535,
      "Ġhim": 1536,
      "Ġthree": 1537,
      "Ġprom": 1538,
      "Ġland": 1539,
      "Ġmaterial": 1540,
      "rain": 1541,
      "ently": 1542,
      "Ġknown": 1543,
      "Ġelect": 1544,
      "lish": 1545,
      "arge": 1546,
      "ocus": 1547,
      "Ġmark": 1548,
      "This": 1549,
      "Ġpublic": 1550,
      "Ġbetter": 1551,
      "bs": 1552,
      "ior": 1553,
      "Ġanother": 1554,
      "tain": 1555,
      "Ġmult": 1556,
      "ĊĠĠĠĠĠĠĠĠĠĠĠĠĠĠĠĠĠĠĠĠĠĠĠ": 1557,
      "che": 1558,
      "fe": 1559,
      "ĠTrue": 1560,
      "Ġfeel": 1561,
      "ling": 1562,
      "ething": 1563,
      "ason": 1564,
      "conom": 1565,
      "Ġdon": 1566,
      "ality": 1567,
      "Ġben": 1568,
      "Ġess": 1569,
      "ouse": 1570,
      "Ġoper": 1571,
      "Ġinclude": 1572,
      "Ġmus": 1573,
      "amp": 1574,
      "lu": 1575,
      "Ġinterest": 1576,
      "Ġfac": 1577,
      "resent": 1578,
      "Ġrun": 1579,
      "ĠNew": 1580,
      "ental": 1581,
      "Ġcurrent": 1582,
      "Ġmove": 1583,
      "Ġperform": 1584,
      "ĠHowever": 1585,
      "Ġant": 1586,
      "IT": 1587,
      "Ġpur": 1588,
      "oms": 1589,
      "field": 1590,
      "Ġprof": 1591,
      "ights": 1592,
      "Ġreport": 1593,
      "Ġgroup": 1594,
      "ĠDe": 1595,
      "Ġnp": 1596,
      "lab": 1597,
      "Ġtext": 1598,
      "Ġbook": 1599,
      "Ġothers": 1600,
      "Ġplace": 1601,
      "time": 1602,
      "user": 1603,
      "aj": 1604,
      "essage": 1605,
      "Ġpotential": 1606,
      "duct": 1607,
      "ml": 1608,
      "uro": 1609,
      "Ġstill": 1610,
      "ways": 1611,
      "Ġmean": 1612,
      "Ġ__": 1613,
      "orth": 1614,
      "ients": 1615,
      "ton": 1616,
      "Ġsit": 1617,
      "Ġamong": 1618,
      "ration": 1619,
      "Ġkeep": 1620,
      "Ġimm": 1621,
      "Ġbelie": 1622,
      "Ġauth": 1623,
      "Ġfin": 1624,
      "Ġgreat": 1625,
      "comm": 1626,
      "verse": 1627,
      "Ġaccess": 1628,
      "ember": 1629,
      "back": 1630,
      "ived": 1631,
      "Ġpresent": 1632,
      "Ġequ": 1633,
      "Ġsomething": 1634,
      "Ġphys": 1635,
      "ills": 1636,
      "assertEqual": 1637,
      "ording": 1638,
      "ially": 1639,
      "Ġleg": 1640,
      "ological": 1641,
      "Ġgr": 1642,
      "Ġhapp": 1643,
      "arget": 1644,
      "db": 1645,
      "Ġeas": 1646,
      "anguage": 1647,
      "Ġtoo": 1648,
      "cond": 1649,
      "Ġdevelopment": 1650,
      "Ġbecome": 1651,
      "Ġlim": 1652,
      "========": 1653,
      "Ġfr": 1654,
      "iversity": 1655,
      "ĠSo": 1656,
      "ĠRes": 1657,
      "EN": 1658,
      "oin": 1659,
      "ĠFalse": 1660,
      "Ġmanag": 1661,
      "rite": 1662,
      "Ġsever": 1663,
      "uture": 1664,
      "Ġlaw": 1665,
      "Ġ&": 1666,
      "Ġhistory": 1667,
      "ĠThere": 1668,
      "orn": 1669,
      "ention": 1670,
      "Ġi": 1671,
      "Ġenergy": 1672,
      "clus": 1673,
      "ann": 1674,
      "ST": 1675,
      "ID": 1676,
      "ected": 1677,
      "Ġcontrol": 1678,
      "init": 1679,
      "ury": 1680,
      "Ġcaus": 1681,
      "Ġspe": 1682,
      "serv": 1683,
      "ĠSc": 1684,
      "ope": 1685,
      "Ġtop": 1686,
      "Ġbus": 1687,
      "Ġconnect": 1688,
      "Ġos": 1689,
      "Ġpath": 1690,
      "gin": 1691,
      "cle": 1692,
      "Ġ@": 1693,
      "Ġcr": 1694,
      "ww": 1695,
      "Ġ>": 1696,
      "ĠĠĠĠĠĠ": 1697,
      "Ġlocal": 1698,
      "Ġdue": 1699,
      "ogn": 1700,
      "ĠIs": 1701,
      "Ġold": 1702,
      "Ġstand": 1703,
      "Ġsignificant": 1704,
      "Ġve": 1705,
      "info": 1706,
      "ĠIm": 1707,
      "Ġmodel": 1708,
      "urther": 1709,
      "pected": 1710,
      "ission": 1711,
      "Ġbased": 1712,
      "Ġpri": 1713,
      "ots": 1714,
      "Ġbest": 1715,
      "Ġsl": 1716,
      "gether": 1717,
      "Ġtogether": 1718,
      "agn": 1719,
      "Ġcal": 1720,
      "Ġes": 1721,
      "ploy": 1722,
      "Ġ('": 1723,
      "yn": 1724,
      "ĠSh": 1725,
      "Ġspecific": 1726,
      "Ġaut": 1727,
      "Ġcontext": 1728,
      "ium": 1729,
      "ression": 1730,
      "rans": 1731,
      "ĠWhen": 1732,
      "Ġfocus": 1733,
      "ype": 1734,
      "reg": 1735,
      "Ġhome": 1736,
      "Ch": 1737,
      "Ġprovide": 1738,
      "ring": 1739,
      "Ġsupp": 1740,
      "arc": 1741,
      "Ġhere": 1742,
      "Ġmeas": 1743,
      "ditions": 1744,
      "Ġair": 1745,
      "Ġhead": 1746,
      "Ġcrit": 1747,
      "Ġagainst": 1748,
      "Ġsuccess": 1749,
      "Ġter": 1750,
      "Ġthings": 1751,
      "ency": 1752,
      "ication": 1753,
      "ograph": 1754,
      "://": 1755,
      "here": 1756,
      "Ġnon": 1757,
      "opt": 1758,
      "load": 1759,
      "ailable": 1760,
      "Ġlab": 1761,
      ",\"": 1762,
      "ables": 1763,
      "ole": 1764,
      "pre": 1765,
      "Ġmeans": 1766,
      "Ġseveral": 1767,
      "dir": 1768,
      "Ġstruct": 1769,
      "Ġuser": 1770,
      "Ġalong": 1771,
      "atural": 1772,
      "Ġsoci": 1773,
      "As": 1774,
      "Ġfri": 1775,
      "Ġlight": 1776,
      "erc": 1777,
      "Ġcomplex": 1778,
      "object": 1779,
      "face": 1780,
      "It": 1781,
      "||": 1782,
      "AN": 1783,
      "ians": 1784,
      "Ġunderstanding": 1785,
      "Ġanim": 1786,
      "outh": 1787,
      "Ġtre": 1788,
      "obal": 1789,
      "Ex": 1790,
      "Ġparticular": 1791,
      "Ġimpact": 1792,
      "Ġinstance": 1793,
      "ength": 1794,
      "Ġbas": 1795,
      "use": 1796,
      "imate": 1797,
      "of": 1798,
      "Ġorig": 1799,
      "ĠEng": 1800,
      "Ġfamily": 1801,
      "Ġfew": 1802,
      "ev": 1803,
      "AS": 1804,
      "Ġmaking": 1805,
      "rop": 1806,
      "Ġrange": 1807,
      "Ġraise": 1808,
      "Ġlo": 1809,
      "Ġhy": 1810,
      "Ġcho": 1811,
      "Ġlarge": 1812,
      "Ġlast": 1813,
      "Ġpain": 1814,
      "################": 1815,
      "Ġbenef": 1816,
      "Ġunt": 1817,
      "umn": 1818,
      "wards": 1819,
      "thon": 1820,
      "Ġz": 1821,
      "Ġbo": 1822,
      "Ġ.": 1823,
      "Ġcontribut": 1824,
      "[\"": 1825,
      "ĠTo": 1826,
      "ession": 1827,
      "action": 1828,
      "oid": 1829,
      "ending": 1830,
      "Ġview": 1831,
      "iction": 1832,
      ",âĢĿ": 1833,
      "lished": 1834,
      "Ġacross": 1835,
      "Ġtool": 1836,
      "aster": 1837,
      "ging": 1838,
      "sw": 1839,
      "Pro": 1840,
      "].": 1841,
      "idd": 1842,
      "config": 1843,
      "ĠAmerican": 1844,
      "ma": 1845,
      "ĠPl": 1846,
      "new": 1847,
      "ĠCl": 1848,
      "instance": 1849,
      "Ġbi": 1850,
      "ivity": 1851,
      "amet": 1852,
      "Ġturn": 1853,
      "Ġchalleng": 1854,
      "izing": 1855,
      "Ġarea": 1856,
      "Ġfollowing": 1857,
      "itle": 1858,
      "Ġinit": 1859,
      "():": 1860,
      "Ġcertain": 1861,
      "Ġapplic": 1862,
      "oh": 1863,
      "aces": 1864,
      "Ġdiscuss": 1865,
      "ttp": 1866,
      "Ġenc": 1867,
      "Ġorder": 1868,
      "Ġeconom": 1869,
      "word": 1870,
      "Ġgiven": 1871,
      "Ġcontain": 1872,
      "ae": 1873,
      "icy": 1874,
      "apt": 1875,
      "Ġrole": 1876,
      "Ġearly": 1877,
      "iting": 1878,
      "ilities": 1879,
      "olution": 1880,
      "Ġcase": 1881,
      "acy": 1882,
      "Ġfore": 1883,
      "Ġsystems": 1884,
      "ides": 1885,
      "Ġexperien": 1886,
      "ey": 1887,
      "Ġspecial": 1888,
      "Ġpost": 1889,
      "etwork": 1890,
      "vert": 1891,
      "ored": 1892,
      "Ġassoci": 1893,
      "cer": 1894,
      "arth": 1895,
      "Ġwomen": 1896,
      "Ġrespons": 1897,
      "ises": 1898,
      "Ġdr": 1899,
      "ended": 1900,
      "Ġrele": 1901,
      "Ġperiod": 1902,
      "idence": 1903,
      "ĠEn": 1904,
      "Ġrelations": 1905,
      "cul": 1906,
      "Ġlow": 1907,
      "aut": 1908,
      "Ġpo": 1909,
      "Ġexist": 1910,
      "Ġstep": 1911,
      "Ġwhy": 1912,
      "Ġrepresent": 1913,
      "rodu": 1914,
      "âĢĵ": 1915,
      "Ġrecord": 1916,
      "Ġessential": 1917,
      "False": 1918,
      "mat": 1919,
      "ample": 1920,
      "Ġcommunity": 1921,
      "ĠCol": 1922,
      "ards": 1923,
      "Ġaddress": 1924,
      "Ġevent": 1925,
      "Ġrisk": 1926,
      "nal": 1927,
      "text": 1928,
      "Ġdisease": 1929,
      "Ġcost": 1930,
      "Ġaddition": 1931,
      "Con": 1932,
      "Ġcomput": 1933,
      "atures": 1934,
      "Ġparent": 1935,
      "ane": 1936,
      "Ġcomb": 1937,
      "apter": 1938,
      "bl": 1939,
      "Ġavailable": 1940,
      "Ġconsider": 1941,
      "Ġ}": 1942,
      "Ġpossible": 1943,
      "format": 1944,
      "Ġbro": 1945,
      "AL": 1946,
      "Ġinvest": 1947,
      "Ġvir": 1948,
      "Ġnext": 1949,
      "...": 1950,
      "Ġrece": 1951,
      "ilar": 1952,
      "To": 1953,
      "rist": 1954,
      "Ġfuture": 1955,
      "Ġcome": 1956,
      "ones": 1957,
      "Ġ/": 1958,
      "Ġresults": 1959,
      "Ġoccur": 1960,
      "Ġmil": 1961,
      "ibr": 1962,
      "icense": 1963,
      "icle": 1964,
      "Ġblood": 1965,
      "Ġsince": 1966,
      "Ġconc": 1967,
      "Ġscient": 1968,
      "ĠâĢĺ": 1969,
      "Ġgovernment": 1970,
      "crib": 1971,
      "âĢľ": 1972,
      "Ġmill": 1973,
      "Ġcheck": 1974,
      "Ġtimes": 1975,
      "ither": 1976,
      "bu": 1977,
      "Ġcourse": 1978,
      "ĠPh": 1979,
      "num": 1980,
      "ators": 1981,
      "Ġlanguage": 1982,
      "ĠSp": 1983,
      "ception": 1984,
      "Ġprevent": 1985,
      "ari": 1986,
      "play": 1987,
      "Ġresponse": 1988,
      "roups": 1989,
      "icult": 1990,
      "Ġlay": 1991,
      "ledge": 1992,
      "agine": 1993,
      "ush": 1994,
      "asing": 1995,
      "resp": 1996,
      "istic": 1997,
      "oura": 1998,
      "Ġareas": 1999,
      "Ġbusiness": 2000,
      "RE": 2001,
      "code": 2002,
      "tings": 2003,
      "Ġdoc": 2004,
      "side": 2005,
      "arr": 2006,
      "Ġ{'": 2007,
      "Ġnecess": 2008,
      "aring": 2009,
      "roll": 2010,
      "ĠOr": 2011,
      "my": 2012,
      "Ġvalues": 2013,
      "met": 2014,
      "Ġworks": 2015,
      "Ġtri": 2016,
      "ume": 2017,
      "iple": 2018,
      "ajor": 2019,
      "Ġuntil": 2020,
      "Ġsel": 2021,
      "Ġunique": 2022,
      "Ġtechnology": 2023,
      "ĠUniversity": 2024,
      "comp": 2025,
      "Ġlevels": 2026,
      "__(": 2027,
      "ĠThat": 2028,
      "Ġhard": 2029,
      "pportun": 2030,
      "Ġinflu": 2031,
      "eg": 2032,
      "Ġbehav": 2033,
      "ream": 2034,
      "Ġpolit": 2035,
      "Ġcause": 2036,
      "Ġrest": 2037,
      "selves": 2038,
      "What": 2039,
      "rel": 2040,
      "Ġhig": 2041,
      "ised": 2042,
      "dict": 2043,
      "ee": 2044,
      "ittle": 2045,
      "Ġways": 2046,
      "ĠWith": 2047,
      "sp": 2048,
      "Ġ|": 2049,
      "aps": 2050,
      "'),": 2051,
      "Ġvol": 2052,
      "Ġpress": 2053,
      "Ġshort": 2054,
      "Ġtypes": 2055,
      "inter": 2056,
      "Ġdeterm": 2057,
      "Ġresources": 2058,
      "Ġcharacter": 2059,
      "Ġdri": 2060,
      "Ġindividuals": 2061,
      "Ġplant": 2062,
      "ires": 2063,
      "Ġfree": 2064,
      "Ġtoday": 2065,
      "Ġlen": 2066,
      "Ġsing": 2067,
      "Ġexperience": 2068,
      "Ġkind": 2069,
      "ina": 2070,
      "Ġstrateg": 2071,
      "su": 2072,
      "dom": 2073,
      "Ġnatural": 2074,
      "Ġalways": 2075,
      "plic": 2076,
      "ails": 2077,
      "LE": 2078,
      "fl": 2079,
      "gen": 2080,
      "ements": 2081,
      "IC": 2082,
      "Ġask": 2083,
      "([": 2084,
      "SE": 2085,
      "Ġsay": 2086,
      "Ġconcept": 2087,
      "Ġconditions": 2088,
      "ler": 2089,
      "Ġneeds": 2090,
      "ibility": 2091,
      "ysis": 2092,
      "Ġcountry": 2093,
      "size": 2094,
      "osed": 2095,
      "plement": 2096,
      "isc": 2097,
      "Test": 2098,
      "čĊĠĠĠĠĠĠĠ": 2099,
      "Ġissues": 2100,
      "orld": 2101,
      "Field": 2102,
      "ĠZ": 2103,
      "Ġstrong": 2104,
      "Ġmen": 2105,
      "Ġ[]": 2106,
      "ik": 2107,
      "Ġsuper": 2108,
      "ured": 2109,
      "Ġopportun": 2110,
      "ĠUnited": 2111,
      "Ġspace": 2112,
      "egr": 2113,
      "max": 2114,
      "Ġdat": 2115,
      "ĊĊĠĠĠĠĠĠĠĠĠĠĠ": 2116,
      "Ġlater": 2117,
      "Ġ$": 2118,
      "Ġsource": 2119,
      "Ġill": 2120,
      "etimes": 2121,
      "ango": 2122,
      "Ġrequest": 2123,
      "Ġexplore": 2124,
      "Ġable": 2125,
      "Ġdem": 2126,
      "ustom": 2127,
      "ification": 2128,
      "Ġcir": 2129,
      "ules": 2130,
      "oph": 2131,
      "Ġflow": 2132,
      "osp": 2133,
      "Ġaction": 2134,
      "Ġsize": 2135,
      "ĠOne": 2136,
      "Ġtradition": 2137,
      "Ġyoung": 2138,
      "Ġupon": 2139,
      "Ġsecond": 2140,
      "unt": 2141,
      "Ġrelationship": 2142,
      "Ġsw": 2143,
      "Ġindust": 2144,
      "state": 2145,
      "Ġmar": 2146,
      "\"]": 2147,
      "Ġlik": 2148,
      "Ġexc": 2149,
      "ek": 2150,
      "thing": 2151,
      "Ġproblem": 2152,
      "Ġpast": 2153,
      "Ġtreatment": 2154,
      "sub": 2155,
      "rand": 2156,
      "Ġeducation": 2157,
      "start": 2158,
      "ott": 2159,
      "ĠAt": 2160,
      "Ġhistor": 2161,
      "aper": 2162,
      "Int": 2163,
      "ĠWhat": 2164,
      "urope": 2165,
      "Ġmov": 2166,
      "Ġstory": 2167,
      "Ġprim": 2168,
      "Ġpercent": 2169,
      "Ġever": 2170,
      "Ġsens": 2171,
      "bo": 2172,
      "Im": 2173,
      "Ġdig": 2174,
      "though": 2175,
      "ache": 2176,
      "Ġsimilar": 2177,
      "Ġport": 2178,
      "Ġmajor": 2179,
      "aging": 2180,
      "place": 2181,
      "Ġauthor": 2182,
      "Ġdefault": 2183,
      "uments": 2184,
      "Ġcollect": 2185,
      "ges": 2186,
      "Ġchanges": 2187,
      "ably": 2188,
      "Ġemb": 2189,
      "Ġproblems": 2190,
      "odes": 2191,
      "Ġprotect": 2192,
      "Ġestab": 2193,
      "Ġmaintain": 2194,
      "jango": 2195,
      "cription": 2196,
      "--------------------------------": 2197,
      "part": 2198,
      "Ġmind": 2199,
      "Ġlarg": 2200,
      "head": 2201,
      "Ġbegin": 2202,
      "ĠBe": 2203,
      "vious": 2204,
      "ĠAf": 2205,
      "Ġspecies": 2206,
      "Ġworking": 2207,
      "gs": 2208,
      "Ġsum": 2209,
      "Ġaccount": 2210,
      "Ġey": 2211,
      "ormal": 2212,
      "des": 2213,
      "Ġput": 2214,
      "An": 2215,
      "icro": 2216,
      "fer": 2217,
      "Ġimprove": 2218,
      "Ġpred": 2219,
      "Ġsugg": 2220,
      "Ġcells": 2221,
      "Ġsuggest": 2222,
      "Ġsoft": 2223,
      "ips": 2224,
      "Ġsym": 2225,
      "Ġage": 2226,
      "Ġfar": 2227,
      "ĠX": 2228,
      "Ġtarget": 2229,
      "wh": 2230,
      "ĠFr": 2231,
      "Ġamount": 2232,
      "ĠAll": 2233,
      "wargs": 2234,
      "Ġbir": 2235,
      "ĠOn": 2236,
      "Ġmot": 2237,
      "Ġskills": 2238,
      "ĠCan": 2239,
      "ney": 2240,
      "ening": 2241,
      "Ġconfig": 2242,
      "Ġjour": 2243,
      "call": 2244,
      "inary": 2245,
      "Ġur": 2246,
      "We": 2247,
      "Ġrequire": 2248,
      "Ġconcern": 2249,
      "''": 2250,
      "ops": 2251,
      "atives": 2252,
      "Ġwhether": 2253,
      "Ġdom": 2254,
      "Ġ{}": 2255,
      "Ġmonth": 2256,
      "Ġimage": 2257,
      "Ġglobal": 2258,
      "join": 2259,
      "ipp": 2260,
      "erence": 2261,
      "ained": 2262,
      "plit": 2263,
      "une": 2264,
      "Ġlittle": 2265,
      "Ġrad": 2266,
      "Ġfour": 2267,
      "Al": 2268,
      "ales": 2269,
      "ĠSome": 2270,
      "Ġeffort": 2271,
      "Ġgrowth": 2272,
      "raft": 2273,
      "Ġdistribut": 2274,
      "Ġrequired": 2275,
      "nection": 2276,
      "ĠStates": 2277,
      "Ġhaving": 2278,
      "Ġthroughout": 2279,
      "Ġdest": 2280,
      "ĠEurope": 2281,
      "ours": 2282,
      "rect": 2283,
      "Ġpattern": 2284,
      "Ġversion": 2285,
      "Ġwords": 2286,
      "Ġfull": 2287,
      "Ġknowledge": 2288,
      "Ġemploy": 2289,
      "ĠGod": 2290,
      "Ġpersonal": 2291,
      "ĠInst": 2292,
      "Ġfurther": 2293,
      "ĠTe": 2294,
      "Ġheart": 2295,
      "array": 2296,
      "ĠChrist": 2297,
      "oration": 2298,
      "valid": 2299,
      "Ġpub": 2300,
      "ĠLicense": 2301,
      "chie": 2302,
      "gress": 2303,
      "Ġmax": 2304,
      "asc": 2305,
      "ĠâĢĶ": 2306,
      "Ġcontent": 2307,
      "Ġoutput": 2308,
      "Ġcolle": 2309,
      "If": 2310,
      "iques": 2311,
      "Ġappear": 2312,
      "Ġcontinue": 2313,
      "Ġtowards": 2314,
      "Ġmakes": 2315,
      "cial": 2316,
      "ising": 2317,
      "comes": 2318,
      "index": 2319,
      "ĠComm": 2320,
      "ued": 2321,
      "())": 2322,
      "order": 2323,
      "right": 2324,
      "Ġred": 2325,
      "How": 2326,
      "Ġparticip": 2327,
      "ready": 2328,
      "len": 2329,
      "Ġtemper": 2330,
      "Ġleft": 2331,
      "ites": 2332,
      "Ġgroups": 2333,
      "nces": 2334,
      "fact": 2335,
      "loc": 2336,
      "utions": 2337,
      "ffic": 2338,
      "ĠCont": 2339,
      "Ġconsum": 2340,
      "rem": 2341,
      "Ġenough": 2342,
      "Ġquestions": 2343,
      "Ġliter": 2344,
      "Ġ\\": 2345,
      "Ġgive": 2346,
      "default": 2347,
      "org": 2348,
      "Ġassociated": 2349,
      "come": 2350,
      "AM": 2351,
      "Ġensure": 2352,
      "Ġbreak": 2353,
      "ilt": 2354,
      "Ġmodern": 2355,
      "Ġeither": 2356,
      "enc": 2357,
      "Ġsure": 2358,
      "Ġrecogn": 2359,
      "med": 2360,
      "Ġphysical": 2361,
      "mp": 2362,
      "resh": 2363,
      "go": 2364,
      "AC": 2365,
      "Ġsays": 2366,
      "Ġpy": 2367,
      "Ġaway": 2368,
      "etic": 2369,
      "clusion": 2370,
      "lam": 2371,
      "Ġbig": 2372,
      "oney": 2373,
      "Ġdifficult": 2374,
      "Ġunit": 2375,
      "lying": 2376,
      "Ġteac": 2377,
      "Ġdeep": 2378,
      "Ġelif": 2379,
      "oot": 2380,
      "Ġplants": 2381,
      "dis": 2382,
      "aching": 2383,
      "Ġrelig": 2384,
      "Ġcountries": 2385,
      "ĠCent": 2386,
      "Ġ+=": 2387,
      "oun": 2388,
      "Ġactivities": 2389,
      "Ġsubject": 2390,
      "Ġcy": 2391,
      "Ġprin": 2392,
      "Ġpractice": 2393,
      "Ġneg": 2394,
      "fun": 2395,
      "aves": 2396,
      "ruction": 2397,
      "Ġ--": 2398,
      "pecially": 2399,
      "ref": 2400,
      "'re": 2401,
      "Com": 2402,
      "DE": 2403,
      "Ġside": 2404,
      "anced": 2405,
      "Ġnature": 2406,
      "ags": 2407,
      "atory": 2408,
      "pri": 2409,
      "Ġscience": 2410,
      "illed": 2411,
      "Ġcode": 2412,
      "Ġresearc": 2413,
      "Ġmaterials": 2414,
      "ete": 2415,
      "Ġregard": 2416,
      "Ġaspect": 2417,
      "Ġsingle": 2418,
      "\".": 2419,
      "ĠAfric": 2420,
      "create": 2421,
      "For": 2422,
      "Ġdays": 2423,
      "fields": 2424,
      "Ġabs": 2425,
      "Ġfactors": 2426,
      "Ġmethods": 2427,
      "ctions": 2428,
      "Ġinput": 2429,
      "Ġchallenges": 2430,
      "à¤": 2431,
      "elling": 2432,
      "Ġpay": 2433,
      "čĊ": 2434,
      "eral": 2435,
      "Ġhigher": 2436,
      "Ġabove": 2437,
      "fort": 2438,
      "eds": 2439,
      "Re": 2440,
      "Ġcreated": 2441,
      "Ġsitu": 2442,
      "nov": 2443,
      "Ġachie": 2444,
      "Ġaffect": 2445,
      "Ġusually": 2446,
      "Ġmembers": 2447,
      "Ġfail": 2448,
      "Ġfund": 2449,
      "ename": 2450,
      "Ġjob": 2451,
      "ĠSy": 2452,
      "ift": 2453,
      "Ġshare": 2454,
      "most": 2455,
      "Ġbuilding": 2456,
      "ION": 2457,
      "'],": 2458,
      "ims": 2459,
      "ender": 2460,
      "print": 2461,
      "Ġterm": 2462,
      "tml": 2463,
      "Ġcommunities": 2464,
      "Ġsomeone": 2465,
      "aries": 2466,
      "ĊĠĠĠĠĠĠĠĠĠ": 2467,
      "ounds": 2468,
      "Ġincrease": 2469,
      "af": 2470,
      "Ġsimple": 2471,
      "param": 2472,
      "Ġgoing": 2473,
      "with": 2474,
      "Ġground": 2475,
      "\"),": 2476,
      "II": 2477,
      "let": 2478,
      "fully": 2479,
      "(),": 2480,
      "UT": 2481,
      "earch": 2482,
      "ences": 2483,
      "Ġnear": 2484,
      "Ġquality": 2485,
      ".__": 2486,
      "Ġcancer": 2487,
      "run": 2488,
      "Ġalready": 2489,
      "Ġevents": 2490,
      "Ġintern": 2491,
      "Ġstudies": 2492,
      "dd": 2493,
      "sych": 2494,
      "Ġemot": 2495,
      "light": 2496,
      "Ġhost": 2497,
      "ĠMed": 2498,
      "aken": 2499,
      "Ġcolor": 2500,
      "Ġmodels": 2501,
      "ged": 2502,
      "Ġnever": 2503,
      "Ġwar": 2504,
      "Ġhold": 2505,
      "Ġrespect": 2506,
      "ohn": 2507,
      "ele": 2508,
      "Ġcomes": 2509,
      "Ġphot": 2510,
      "Ġquestion": 2511,
      "Ġeffects": 2512,
      "Ġrights": 2513,
      "Ġpatients": 2514,
      "Ġhowever": 2515,
      "'}": 2516,
      "indow": 2517,
      "lt": 2518,
      "Ġhelps": 2519,
      "ĊĊĠ": 2520,
      "Ġdescrib": 2521,
      "avor": 2522,
      "Ġeffic": 2523,
      "Ġinstead": 2524,
      "There": 2525,
      "ĠNational": 2526,
      "Ġlikely": 2527,
      "ches": 2528,
      "Ġdam": 2529,
      "Name": 2530,
      "Ġrather": 2531,
      "ulations": 2532,
      "Ġchem": 2533,
      "utils": 2534,
      "point": 2535,
      "Ġir": 2536,
      "Ġexpected": 2537,
      "Ġespecially": 2538,
      "Res": 2539,
      "Ġver": 2540,
      "Ġcases": 2541,
      "Ġthemselves": 2542,
      "Ġindic": 2543,
      "Ġcentury": 2544,
      "Ġleast": 2545,
      "Ġcompon": 2546,
      "IS": 2547,
      "Ġloss": 2548,
      "Ġ(\"": 2549,
      "return": 2550,
      "amed": 2551,
      "Ġliving": 2552,
      "Ġfamil": 2553,
      "empt": 2554,
      "Ġintegr": 2555,
      "Ġmeet": 2556,
      "Ġreason": 2557,
      "ĠUS": 2558,
      "Ġpopulation": 2559,
      "Ġbecame": 2560,
      "RO": 2561,
      "Ġpie": 2562,
      "Ġmanagement": 2563,
      "verage": 2564,
      "Ġimplement": 2565,
      "epend": 2566,
      "Ġservice": 2567,
      "ED": 2568,
      "Ġonline": 2569,
      "overed": 2570,
      "Ġallows": 2571,
      "Ġtyp": 2572,
      "request": 2573,
      "aling": 2574,
      "rap": 2575,
      "models": 2576,
      "Ġmarket": 2577,
      "ties": 2578,
      "Ġteam": 2579,
      "Ġnecessary": 2580,
      "Ġaccording": 2581,
      "del": 2582,
      "lex": 2583,
      "Ġnut": 2584,
      "Ġtot": 2585,
      "rs": 2586,
      "Ġneeded": 2587,
      "Ġtechniques": 2588,
      "ened": 2589,
      "iver": 2590,
      "Ġtrue": 2591,
      "Ġproducts": 2592,
      "Ġservices": 2593,
      "Ġexperiences": 2594,
      "itor": 2595,
      "yle": 2596,
      "sequ": 2597,
      "Now": 2598,
      "Ġproduction": 2599,
      "check": 2600,
      "Ġmusic": 2601,
      "Ġlower": 2602,
      "ze": 2603,
      "Ġencoura": 2604,
      "Ġtools": 2605,
      "ptoms": 2606,
      "alue": 2607,
      "Ġtable": 2608,
      "context": 2609,
      "Ġcity": 2610,
      "Ġobserv": 2611,
      "Ġonce": 2612,
      "ĠGener": 2613,
      "Ġcultural": 2614,
      "Ġfig": 2615,
      "Ġarch": 2616,
      "enn": 2617,
      "Ġpopular": 2618,
      "Ġthought": 2619,
      "Ġreduce": 2620,
      "Ġbrain": 2621,
      "Ġstories": 2622,
      "UR": 2623,
      "Ġlives": 2624,
      "Ġfall": 2625,
      "Ġbal": 2626,
      "ĠAm": 2627,
      "Ġengine": 2628,
      "Ġfrequ": 2629,
      "Ġrev": 2630,
      "Ġprovides": 2631,
      "Cl": 2632,
      "oes": 2633,
      "Ġmessage": 2634,
      "Ġeveryone": 2635,
      "ET": 2636,
      "eturn": 2637,
      "Ġemerg": 2638,
      "ĠWorld": 2639,
      "ults": 2640,
      "Ġexpress": 2641,
      "AP": 2642,
      "chan": 2643,
      "rec": 2644,
      "mbol": 2645,
      "like": 2646,
      "no": 2647,
      "itud": 2648,
      "Ġge": 2649,
      "Ġdraw": 2650,
      "Ġdeath": 2651,
      "Ġcreating": 2652,
      "ĠBl": 2653,
      "Ġpriv": 2654,
      "rad": 2655,
      "iol": 2656,
      "md": 2657,
      "Ġcru": 2658,
      "Ġgeneral": 2659,
      "ĠShe": 2660,
      "reed": 2661,
      "ctor": 2662,
      "Ġcritical": 2663,
      "Ġanalysis": 2664,
      "ĠApp": 2665,
      "Ġdeg": 2666,
      "Ġyet": 2667,
      "Ġoptions": 2668,
      "Ġtalk": 2669,
      "uid": 2670,
      "Ġcut": 2671,
      "Ġmultiple": 2672,
      "group": 2673,
      "Ġseem": 2674,
      "ison": 2675,
      "Ġclean": 2676,
      "Ġmach": 2677,
      "oman": 2678,
      "reng": 2679,
      "reci": 2680,
      "ĠAss": 2681,
      "Ġtraditional": 2682,
      "Ġla": 2683,
      "Ġsaf": 2684,
      "Ġprob": 2685,
      "ĠStud": 2686,
      "ĠWhile": 2687,
      "Ġcapt": 2688,
      "Ġanimals": 2689,
      "Ġsometimes": 2690,
      "Ġresearchers": 2691,
      "node": 2692,
      "Ġanc": 2693,
      "ym": 2694,
      "erous": 2695,
      "Ġpolitical": 2696,
      "alf": 2697,
      "ird": 2698,
      "ĠWar": 2699,
      "orks": 2700,
      "Ġquick": 2701,
      "Ġparts": 2702,
      "ĠBrit": 2703,
      "porary": 2704,
      "Ġlive": 2705,
      "((": 2706,
      "status": 2707,
      "Ġsust": 2708,
      "curity": 2709,
      "ĊĠĠĠĠ": 2710,
      "Ġlink": 2711,
      "Ġmedical": 2712,
      "ait": 2713,
      "Ġmillion": 2714,
      "One": 2715,
      "ĠTest": 2716,
      "Ġfields": 2717,
      "Ġharm": 2718,
      "dev": 2719,
      "Ġsurface": 2720,
      "ump": 2721,
      "Ġapproach": 2722,
      "Ġsociety": 2723,
      "obj": 2724,
      "osis": 2725,
      "Ġsent": 2726,
      "plate": 2727,
      "Ġincreasing": 2728,
      "When": 2729,
      "Ġevidence": 2730,
      "Ġcustom": 2731,
      "Ġpractices": 2732,
      "ivil": 2733,
      "Ġterms": 2734,
      "istance": 2735,
      "Ġseen": 2736,
      "Ġcopy": 2737,
      "Ġeffective": 2738,
      "Ġsubst": 2739,
      "Ġoil": 2740,
      "imately": 2741,
      "Ġmeaning": 2742,
      "Ġclear": 2743,
      "Ġintrodu": 2744,
      "Ġflo": 2745,
      "lib": 2746,
      "augh": 2747,
      "ĠMan": 2748,
      "Ġreally": 2749,
      "Ġavoid": 2750,
      "Ġelements": 2751,
      "Ġculture": 2752,
      "Ġshape": 2753,
      "client": 2754,
      "Ġnetwork": 2755,
      "Ġcirc": 2756,
      "tem": 2757,
      "Ġextra": 2758,
      "Ġansw": 2759,
      "Ġidentify": 2760,
      "ground": 2761,
      "Ġactivity": 2762,
      "Ã©": 2763,
      "string": 2764,
      "imal": 2765,
      "ĠJohn": 2766,
      "pid": 2767,
      "Ġsun": 2768,
      "ĠMay": 2769,
      "Ġword": 2770,
      "Ġincreased": 2771,
      "host": 2772,
      "Ġmass": 2773,
      "ension": 2774,
      "Ġbelow": 2775,
      "Ġenvironmental": 2776,
      "Ġ!": 2777,
      "Ġprovided": 2778,
      "Ġclos": 2779,
      "Ġremain": 2780,
      "reen": 2781,
      "arl": 2782,
      "based": 2783,
      "Ġcannot": 2784,
      "Ġweight": 2785,
      "Ġsafe": 2786,
      "But": 2787,
      "Type": 2788,
      "off": 2789,
      "ister": 2790,
      "Ġhealthy": 2791,
      "Mod": 2792,
      "bon": 2793,
      "aches": 2794,
      "model": 2795,
      "Ġenh": 2796,
      "joy": 2797,
      "ĠGerm": 2798,
      "Ġexerc": 2799,
      "Un": 2800,
      "icial": 2801,
      "urch": 2802,
      "error": 2803,
      "Ġforms": 2804,
      "Ġsite": 2805,
      "pite": 2806,
      "Ġbase": 2807,
      "Ġpolicy": 2808,
      "iation": 2809,
      "river": 2810,
      "Ġanaly": 2811,
      "Ġid": 2812,
      "itation": 2813,
      "rig": 2814,
      "Ġwid": 2815,
      "acc": 2816,
      ".\"\"\"": 2817,
      "Ġlot": 2818,
      "Ġclimate": 2819,
      "Ġerror": 2820,
      "ĠPol": 2821,
      "Ġentire": 2822,
      "utes": 2823,
      "standing": 2824,
      "leep": 2825,
      "Ġdemon": 2826,
      "hib": 2827,
      "xy": 2828,
      "Ġstates": 2829,
      "rim": 2830,
      "write": 2831,
      "Ġdone": 2832,
      "Ġhouse": 2833,
      "iddle": 2834,
      "ming": 2835,
      "ĠSu": 2836,
      "Cont": 2837,
      "Ġsymptoms": 2838,
      "Ġprote": 2839,
      "Ġpaper": 2840,
      "Ġcompany": 2841,
      "Ġidea": 2842,
      "Ġsepar": 2843,
      "Ġdeb": 2844,
      "Ġregular": 2845,
      "auth": 2846,
      "elt": 2847,
      "Ġste": 2848,
      "Ġsoftware": 2849,
      "'.": 2850,
      "sing": 2851,
      "inating": 2852,
      "Ġability": 2853,
      "Ġposition": 2854,
      "ĊĠĠĠĠĠĠĠĠĠĠĠĠĠĠĠĠĠĠĠĠĠĠĠĠĠĠĠ": 2855,
      "Ġstatus": 2856,
      "Ġtaking": 2857,
      "np": 2858,
      "Ġrelated": 2859,
      "ĠEnglish": 2860,
      "Ġbehavior": 2861,
      "hold": 2862,
      "atter": 2863,
      "ĠHealth": 2864,
      "Ġfriends": 2865,
      "emic": 2866,
      "AB": 2867,
      "Ġnode": 2868,
      "Ġstreng": 2869,
      "ched": 2870,
      "Ġsoil": 2871,
      "Ġreading": 2872,
      "Ġmoney": 2873,
      "Ġfeed": 2874,
      "isions": 2875,
      "orpor": 2876,
      "Ġpage": 2877,
      "ached": 2878,
      "fr": 2879,
      "Ġhistorical": 2880,
      "Ġpack": 2881,
      "Ġactually": 2882,
      "'])": 2883,
      "Ġbenefits": 2884,
      "trans": 2885,
      "iment": 2886,
      "Ġblack": 2887,
      "ply": 2888,
      "pper": 2889,
      "kwargs": 2890,
      "ĠAfter": 2891,
      "Ġguid": 2892,
      "hern": 2893,
      "actions": 2894,
      "CT": 2895,
      "ĠLet": 2896,
      "oved": 2897,
      "Ġreflect": 2898,
      "IV": 2899,
      "ores": 2900,
      "ĠWest": 2901,
      "ĠCal": 2902,
      "hood": 2903,
      "iet": 2904,
      "Ġoffer": 2905,
      "Ġdeveloped": 2906,
      "ideo": 2907,
      "Ġtraining": 2908,
      "Ġrecomm": 2909,
      "ban": 2910,
      "amples": 2911,
      "aff": 2912,
      "aving": 2913,
      "izations": 2914,
      "().": 2915,
      "Ġmor": 2916,
      "ager": 2917,
      "Ġrate": 2918,
      "aily": 2919,
      "Ġmom": 2920,
      "Ġprofess": 2921,
      "Ġwhole": 2922,
      "Ġeconomic": 2923,
      "etime": 2924,
      "By": 2925,
      "Ġdemonstr": 2926,
      "ners": 2927,
      "Ġann": 2928,
      "istics": 2929,
      "Ġdocument": 2930,
      "het": 2931,
      "Ġcame": 2932,
      "Ġnational": 2933,
      "ĠMore": 2934,
      "Ġshap": 2935,
      "Ġmicro": 2936,
      "Ġpressure": 2937,
      "issions": 2938,
      "Ġinnov": 2939,
      "Ġdru": 2940,
      "dat": 2941,
      "Ġvalid": 2942,
      "Ġpublished": 2943,
      "api": 2944,
      "Ġcomplet": 2945,
      "Ġwriting": 2946,
      "ixed": 2947,
      "update": 2948,
      "imum": 2949,
      "Ġsex": 2950,
      "ĠUnder": 2951,
      "Ġconsist": 2952,
      "Ġtotal": 2953,
      "Ġyourself": 2954,
      "Ġhab": 2955,
      "ĠDes": 2956,
      "Ġbar": 2957,
      "pose": 2958,
      "Ġtell": 2959,
      "Ġsurround": 2960,
      "uration": 2961,
      "www": 2962,
      "'))": 2963,
      "CH": 2964,
      "Ġitself": 2965,
      "erson": 2966,
      "Ġrow": 2967,
      "idered": 2968,
      "output": 2969,
      "Ġface": 2970,
      "rapy": 2971,
      "ĠNot": 2972,
      "ameters": 2973,
      "Ġassess": 2974,
      "ĠThrough": 2975,
      "do": 2976,
      "Ġfost": 2977,
      "Ġbring": 2978,
      "minist": 2979,
      "method": 2980,
      "Ġprevious": 2981,
      "Ġpositive": 2982,
      "ĠAb": 2983,
      "itted": 2984,
      "Ġenjoy": 2985,
      "Ġlines": 2986,
      "Ġperformance": 2987,
      "ĠAmerica": 2988,
      "Ġstop": 2989,
      "atform": 2990,
      "Ġ!=": 2991,
      "itution": 2992,
      "Ġopp": 2993,
      "Ġattention": 2994,
      "Ġstress": 2995,
      "================": 2996,
      "Ġinsp": 2997,
      "amb": 2998,
      "uable": 2999,
      "ĠAct": 3000,
      "oding": 3001,
      "ai": 3002,
      "django": 3003,
      "Ġregion": 3004,
      "CO": 3005,
      "Ġtaken": 3006,
      "ĠGe": 3007,
      "Ġlove": 3008,
      "ĠIntern": 3009,
      "hand": 3010,
      "Ġ['": 3011,
      "attr": 3012,
      "ster": 3013,
      "Ġoption": 3014,
      "Ġsense": 3015,
      "Ġsources": 3016,
      "Ġconsidered": 3017,
      "pass": 3018,
      "Ġfriend": 3019,
      "Ġsustain": 3020,
      "Ġobjects": 3021,
      "ING": 3022,
      "Ġremember": 3023,
      "ĠPy": 3024,
      "da": 3025,
      "imed": 3026,
      "Ġcommand": 3027,
      "ologies": 3028,
      "Ġopportunities": 3029,
      "Ġprec": 3030,
      "Ġsearch": 3031,
      "čĊĠĠĠ": 3032,
      "active": 3033,
      "Ġcrucial": 3034,
      "omet": 3035,
      "ĠPar": 3036,
      "ĠEarth": 3037,
      "Ġstructure": 3038,
      "eb": 3039,
      "AD": 3040,
      "Ġoriginal": 3041,
      "Ġstring": 3042,
      "ĠHist": 3043,
      "tra": 3044,
      "Ġbegan": 3045,
      "Ġdesigned": 3046,
      "icles": 3047,
      "astic": 3048,
      "Ġfive": 3049,
      "ĠYour": 3050,
      "ĠNo": 3051,
      "Ġund": 3052,
      "Ġclose": 3053,
      "Ġappreci": 3054,
      "pol": 3055,
      "OT": 3056,
      "Ġsal": 3057,
      "Ġconduct": 3058,
      "Ġcondition": 3059,
      "Ġec": 3060,
      "html": 3061,
      "equal": 3062,
      "Ġparticularly": 3063,
      "nown": 3064,
      "Ġmedic": 3065,
      "Ġmeasure": 3066,
      "Ġadapt": 3067,
      "ike": 3068,
      "cks": 3069,
      "Ġdoesn": 3070,
      "You": 3071,
      "ene": 3072,
      "eration": 3073,
      "Ġcomputer": 3074,
      "Ġbeaut": 3075,
      "ĠSouth": 3076,
      "mission": 3077,
      "rate": 3078,
      "Ġprograms": 3079,
      "ley": 3080,
      "Section": 3081,
      "ival": 3082,
      "Ġmechan": 3083,
      "Ġaud": 3084,
      "ĠPe": 3085,
      "IL": 3086,
      "Ġleading": 3087,
      "Ġindex": 3088,
      "split": 3089,
      "Ġstri": 3090,
      "Ġsat": 3091,
      "Ġaware": 3092,
      "Ġmental": 3093,
      "Ġmedia": 3094,
      "ĠDr": 3095,
      "Ġaccept": 3096,
      "length": 3097,
      "map": 3098,
      "orage": 3099,
      "Ġskin": 3100,
      "Ġcommunication": 3101,
      "Ar": 3102,
      "edi": 3103,
      "cript": 3104,
      "ribute": 3105,
      "tes": 3106,
      "Ġattack": 3107,
      "response": 3108,
      "ĠNorth": 3109,
      "Ġpsych": 3110,
      "uel": 3111,
      "Ġfiles": 3112,
      "Ġarticle": 3113,
      "Ġgreen": 3114,
      "Ġoverall": 3115,
      "ibrary": 3116,
      "Ġmatter": 3117,
      "Ġeval": 3118,
      "just": 3119,
      "Ġfru": 3120,
      "Ġfarm": 3121,
      "Ġimportance": 3122,
      "ĠMar": 3123,
      "Ġcook": 3124,
      "Ġsuff": 3125,
      "aced": 3126,
      "Ġeth": 3127,
      "Ġitem": 3128,
      "Ġ``": 3129,
      "doc": 3130,
      "ancial": 3131,
      "rag": 3132,
      "Ġsix": 3133,
      "###": 3134,
      "List": 3135,
      "Ġones": 3136,
      "Ġstrategies": 3137,
      "ĠMe": 3138,
      "Ġbroad": 3139,
      "Ġdoing": 3140,
      "Ġvaluable": 3141,
      "ourse": 3142,
      "json": 3143,
      "Ġpatterns": 3144,
      "ĠCons": 3145,
      "Ġgreater": 3146,
      "Ġaccur": 3147,
      "Ġproduce": 3148,
      "Ġisinstance": 3149,
      "vant": 3150,
      "perty": 3151,
      "spec": 3152,
      "irit": 3153,
      "ung": 3154,
      "Ġfish": 3155,
      "Ġwhite": 3156,
      "amin": 3157,
      "Ġcompet": 3158,
      "cn": 3159,
      "Ġfeatures": 3160,
      "emporary": 3161,
      "vere": 3162,
      "'ll": 3163,
      "oud": 3164,
      "Ġdiet": 3165,
      "Ġbehind": 3166,
      "Ġnames": 3167,
      "Ġshows": 3168,
      "Ġspread": 3169,
      "Ġthreat": 3170,
      "lease": 3171,
      "Ġparents": 3172,
      "Ġhom": 3173,
      "Ġheat": 3174,
      "ĠLe": 3175,
      "image": 3176,
      "Ġinside": 3177,
      "Ġcorrect": 3178,
      "Ġprogress": 3179,
      "ynam": 3180,
      "izer": 3181,
      "process": 3182,
      "Ġmock": 3183,
      "ĠChe": 3184,
      "erve": 3185,
      "Ġurl": 3186,
      "Ġexploring": 3187,
      "Ġtree": 3188,
      "Ġchemical": 3189,
      "Ġrout": 3190,
      "Ġblock": 3191,
      "arily": 3192,
      "Ġtook": 3193,
      "Ġinstall": 3194,
      "Ġtravel": 3195,
      "Ġargs": 3196,
      "Ġinvolved": 3197,
      "Ġstudent": 3198,
      "ero": 3199,
      "ĠHis": 3200,
      "fs": 3201,
      "oday": 3202,
      "Ġaltern": 3203,
      "fect": 3204,
      "Ġrecent": 3205,
      "ĠTra": 3206,
      "Ġweek": 3207,
      "izes": 3208,
      "Ġled": 3209,
      "Ġefforts": 3210,
      "Ġgas": 3211,
      "mit": 3212,
      "ccording": 3213,
      "coming": 3214,
      "Ġbuilt": 3215,
      "Ġsafety": 3216,
      "lay": 3217,
      "Ġload": 3218,
      "lement": 3219,
      "Ġuses": 3220,
      "****": 3221,
      "Ġvisual": 3222,
      "inally": 3223,
      "ĠNe": 3224,
      "Ġhttp": 3225,
      "oad": 3226,
      "table": 3227,
      "Ġprimary": 3228,
      "Ġstarted": 3229,
      "Ġdiverse": 3230,
      "Ġideas": 3231,
      "Ġpict": 3232,
      "where": 3233,
      "Ġwrite": 3234,
      "ĠSim": 3235,
      "Ġstay": 3236,
      "Ġnormal": 3237,
      "more": 3238,
      "ript": 3239,
      "avig": 3240,
      "Ġnumbers": 3241,
      "Ġpromot": 3242,
      "So": 3243,
      "Ġpoints": 3244,
      "Ġperspect": 3245,
      "Ġappropri": 3246,
      "input": 3247,
      "inks": 3248,
      "Ġrequires": 3249,
      ".)": 3250,
      "Ġoutside": 3251,
      "Ġseek": 3252,
      "Ġevalu": 3253,
      "Ġfasc": 3254,
      "Ġtemperature": 3255,
      "Ġfat": 3256,
      "Ġhours": 3257,
      "connect": 3258,
      "ĠPer": 3259,
      "care": 3260,
      "Ġdaily": 3261,
      "ried": 3262,
      "Ġdict": 3263,
      "Ġheav": 3264,
      "Ġindustry": 3265,
      "Ġsurv": 3266,
      "ensor": 3267,
      "Ġcla": 3268,
      "ĠAN": 3269,
      "Ġdiv": 3270,
      "account": 3271,
      "rown": 3272,
      "Ġtakes": 3273,
      "Ġhumans": 3274,
      "Ġconnection": 3275,
      "ography": 3276,
      "Ġcollab": 3277,
      "Ġetc": 3278,
      "Ġexec": 3279,
      "Ġcontact": 3280,
      "item": 3281,
      "Ġdevice": 3282,
      "Ġtask": 3283,
      "Ġstandard": 3284,
      "Ġissue": 3285,
      "base": 3286,
      "rast": 3287,
      "ensive": 3288,
      "Ġprep": 3289,
      "aged": 3290,
      "Ġdigital": 3291,
      "lict": 3292,
      "yond": 3293,
      "âĢ¦": 3294,
      "ports": 3295,
      "Ġstru": 3296,
      "umb": 3297,
      "Ġcompan": 3298,
      "build": 3299,
      "Col": 3300,
      "Ġlimit": 3301,
      "Ġdiagn": 3302,
      "Ġwild": 3303,
      "ronic": 3304,
      "Ġcalcul": 3305,
      "ls": 3306,
      "Ġexpect": 3307,
      "Ġexact": 3308,
      "UL": 3309,
      "term": 3310,
      "Ġprocesses": 3311,
      "Ġcool": 3312,
      "Ġsecurity": 3313,
      "vey": 3314,
      "Ġgrowing": 3315,
      "Ġbeyond": 3316,
      "shape": 3317,
      "Ġ[],": 3318,
      "hens": 3319,
      "chol": 3320,
      "ĠPublic": 3321,
      "works": 3322,
      "Ġreve": 3323,
      "ram": 3324,
      "used": 3325,
      "Ġleaders": 3326,
      "Ġmonths": 3327,
      "Ġmovement": 3328,
      "Ġequal": 3329,
      "Ġadded": 3330,
      "ellow": 3331,
      "book": 3332,
      "iency": 3333,
      "Ġcit": 3334,
      "iring": 3335,
      "Ġsimply": 3336,
      "gu": 3337,
      "Ġsn": 3338,
      "itary": 3339,
      "Ġschools": 3340,
      "Ġhalf": 3341,
      "bit": 3342,
      "Ġitems": 3343,
      "asks": 3344,
      "rors": 3345,
      "Ġdog": 3346,
      "ĠCO": 3347,
      "gn": 3348,
      "fix": 3349,
      "agement": 3350,
      "Ġroot": 3351,
      "Ġforce": 3352,
      "Ġinvestig": 3353,
      "Ġdecl": 3354,
      "][": 3355,
      "Ġdeveloping": 3356,
      "http": 3357,
      "Ġtax": 3358,
      "flow": 3359,
      "Ġbooks": 3360,
      "change": 3361,
      "ĠDep": 3362,
      "Ġlonger": 3363,
      "ĠResearch": 3364,
      "Ġcomplete": 3365,
      "IM": 3366,
      "const": 3367,
      "virt": 3368,
      "ufact": 3369,
      "Ġwebs": 3370,
      "ĠGeneral": 3371,
      "Ġbasic": 3372,
      "ocol": 3373,
      "Ġproviding": 3374,
      "hy": 3375,
      "Ġframe": 3376,
      "Ġaspects": 3377,
      "Ġgame": 3378,
      "cret": 3379,
      "Ġslow": 3380,
      "Ġreview": 3381,
      "ĠJew": 3382,
      "Ġeasy": 3383,
      "wise": 3384,
      "lim": 3385,
      "ided": 3386,
      "ĠState": 3387,
      "Ġjourney": 3388,
      "ENT": 3389,
      "can": 3390,
      "Is": 3391,
      "Step": 3392,
      "ĠReg": 3393,
      "US": 3394,
      "ĠAust": 3395,
      "irm": 3396,
      "Ġscientists": 3397,
      "ciples": 3398,
      "Ġsound": 3399,
      "Ġep": 3400,
      "mber": 3401,
      "label": 3402,
      "Ġcompared": 3403,
      "Ġsection": 3404,
      "Ġcaused": 3405,
      "Ġfem": 3406,
      "ervation": 3407,
      "Ġthinking": 3408,
      "artment": 3409,
      "Ġviol": 3410,
      "Ġarray": 3411,
      "itable": 3412,
      "Ġinitial": 3413,
      "Ġdate": 3414,
      "Ġveget": 3415,
      "inct": 3416,
      "Ġdecision": 3417,
      "Ġresource": 3418,
      "rial": 3419,
      "odies": 3420,
      "```": 3421,
      "lor": 3422,
      "Ġsymbol": 3423,
      "Ġaccom": 3424,
      "annel": 3425,
      "duc": 3426,
      "Ġeverything": 3427,
      "Ġvirus": 3428,
      "Ġachieve": 3429,
      "aly": 3430,
      "Ġsettings": 3431,
      "Ġlength": 3432,
      "bre": 3433,
      "gar": 3434,
      "Ġadditional": 3435,
      "cles": 3436,
      "Ġcat": 3437,
      "Ġactive": 3438,
      "Ġimages": 3439,
      "Ġincludes": 3440,
      "Ġincorpor": 3441,
      "ĠRem": 3442,
      "Ġlate": 3443,
      "itute": 3444,
      "wid": 3445,
      "itch": 3446,
      "Ġful": 3447,
      "Ġwritten": 3448,
      "ĠEm": 3449,
      "čĊĠĠĠĠĠĠĠĠĠĠĠ": 3450,
      "Ġinform": 3451,
      "ĠCo": 3452,
      "ternal": 3453,
      "Ġindepend": 3454,
      "message": 3455,
      "Ġsqu": 3456,
      "Ġgain": 3457,
      "Ġsys": 3458,
      "ameter": 3459,
      "igen": 3460,
      "box": 3461,
      "Ġtests": 3462,
      "Ġcauses": 3463,
      "cnae": 3464,
      "ony": 3465,
      "Ġcross": 3466,
      "Ġtrust": 3467,
      "EM": 3468,
      "title": 3469,
      "Ġgraph": 3470,
      "Ġpredict": 3471,
      "Ġrules": 3472,
      "python": 3473,
      "ĠQu": 3474,
      "down": 3475,
      "ederal": 3476,
      "ĠMany": 3477,
      "Ġrelationships": 3478,
      "Ġvisit": 3479,
      "XX": 3480,
      "NA": 3481,
      "Ġ,": 3482,
      "Ġapplications": 3483,
      "ĠMod": 3484,
      "ades": 3485,
      "room": 3486,
      "eter": 3487,
      "Ġpowerful": 3488,
      "Ġoffers": 3489,
      "post": 3490,
      "ulate": 3491,
      "files": 3492,
      "Ġwarm": 3493,
      "File": 3494,
      "Ġshared": 3495,
      "IG": 3496,
      "Ġmatch": 3497,
      "Ġnamed": 3498,
      "Ġproperty": 3499,
      "Ġlooking": 3500,
      "IP": 3501,
      "aa": 3502,
      "Ġchapter": 3503,
      "Ġbelieve": 3504,
      "Ġattempt": 3505,
      "ils": 3506,
      "ĠIndia": 3507,
      "ĠSee": 3508,
      "</": 3509,
      "Ġbecomes": 3510,
      "Ġfinancial": 3511,
      "Ġnet": 3512,
      "Ġdetails": 3513,
      "enge": 3514,
      "quest": 3515,
      "ios": 3516,
      "ada": 3517,
      "abet": 3518,
      "bug": 3519,
      "Ġfire": 3520,
      "elebr": 3521,
      "phas": 3522,
      "oice": 3523,
      "isms": 3524,
      "Ġalmost": 3525,
      "ogle": 3526,
      "Ġinvolves": 3527,
      "result": 3528,
      "itect": 3529,
      "ancing": 3530,
      "oon": 3531,
      "On": 3532,
      "Ġconflict": 3533,
      "Ġsort": 3534,
      "ĠJust": 3535,
      "efore": 3536,
      "Ġwon": 3537,
      "Ġtown": 3538,
      "ĠYork": 3539,
      "Ġcontribute": 3540,
      "known": 3541,
      "parent": 3542,
      "Ġgetting": 3543,
      "Ġsect": 3544,
      "ĠCar": 3545,
      "Id": 3546,
      "Ġreligious": 3547,
      "ĠPr": 3548,
      "ship": 3549,
      "rought": 3550,
      "ilos": 3551,
      "Ġsteps": 3552,
      "Ġcateg": 3553,
      "lation": 3554,
      "Ġisn": 3555,
      "Ġrich": 3556,
      "Ġselect": 3557,
      ":**": 3558,
      "Ġappl": 3559,
      "Ġtrack": 3560,
      "Par": 3561,
      "exp": 3562,
      "Ġutil": 3563,
      "Ġlocation": 3564,
      "Ġthing": 3565,
      "Ġuseful": 3566,
      "HO": 3567,
      "source": 3568,
      "Ġinternational": 3569,
      "Ġquant": 3570,
      "'):": 3571,
      "atively": 3572,
      "iar": 3573,
      "ttps": 3574,
      "values": 3575,
      "Ġeat": 3576,
      "que": 3577,
      "Ġfunctions": 3578,
      "ĠBritish": 3579,
      "Ġfamilies": 3580,
      "Ġquickly": 3581,
      "Key": 3582,
      "Ġlack": 3583,
      "Ġtransport": 3584,
      "ese": 3585,
      "Ġcomponents": 3586,
      "LO": 3587,
      "Ġseries": 3588,
      "Ġinfluence": 3589,
      "Ġcolumn": 3590,
      "Ġstat": 3591,
      "pret": 3592,
      "Ġmagn": 3593,
      "uck": 3594,
      "Ġdamage": 3595,
      "Ġlayer": 3596,
      "Ġax": 3597,
      "hel": 3598,
      "Ġapplication": 3599,
      "cs": 3600,
      "ialog": 3601,
      "Ġancient": 3602,
      "parse": 3603,
      "Ġrefer": 3604,
      "event": 3605,
      "ĠDis": 3606,
      "attle": 3607,
      "ĠComp": 3608,
      "content": 3609,
      "acters": 3610,
      "Ġestablish": 3611,
      "Ġaverage": 3612,
      "Ġfavor": 3613,
      "bject": 3614,
      "Ġpatient": 3615,
      "=[": 3616,
      "Ġkids": 3617,
      "ifically": 3618,
      "With": 3619,
      "eed": 3620,
      "################################": 3621,
      "Ġreceived": 3622,
      "loat": 3623,
      "Ġplatform": 3624,
      "Ġdevices": 3625,
      "Ġfoods": 3626,
      "Ġresponsible": 3627,
      "Ġtheory": 3628,
      "Not": 3629,
      "unch": 3630,
      "Ġautom": 3631,
      "Ġelectric": 3632,
      "ously": 3633,
      "ĊĠĠĠĠĠĠĠĠĠĠĠĠĠĠĠĠĠĠĠĠĠĠĠĠĠĠĠĠĠĠĠĠĠĠĠĠĠĠĠĠ": 3634,
      "uff": 3635,
      "Ġtransform": 3636,
      "ĠArt": 3637,
      "Ġmodule": 3638,
      "Ġwalk": 3639,
      "ditionally": 3640,
      "Ġforest": 3641,
      "Ġremains": 3642,
      "Ġmag": 3643,
      "rc": 3644,
      "Ġshown": 3645,
      "itude": 3646,
      "ĠRuss": 3647,
      "Ġdisplay": 3648,
      "ucle": 3649,
      "osing": 3650,
      "Ġprinciples": 3651,
      "Data": 3652,
      "PO": 3653,
      "Set": 3654,
      "level": 3655,
      "Ġgard": 3656,
      "abled": 3657,
      "ĠFrom": 3658,
      "Ġpoll": 3659,
      "Ġregarding": 3660,
      "Ġprior": 3661,
      "Ġinj": 3662,
      "Ġstrugg": 3663,
      "ĠPart": 3664,
      "Ġcamp": 3665,
      "Ġbott": 3666,
      "istry": 3667,
      "asons": 3668,
      "Ġcred": 3669,
      "igr": 3670,
      "Ġrob": 3671,
      "Ġmanufact": 3672,
      "Ġcarbon": 3673,
      "Ġvia": 3674,
      "Ġprop": 3675,
      "ĠPre": 3676,
      "adata": 3677,
      "Ġsleep": 3678,
      "Ġspirit": 3679,
      "And": 3680,
      "ighb": 3681,
      "erences": 3682,
      "Ġsuccessful": 3683,
      "Ġtim": 3684,
      ">>": 3685,
      "Ġut": 3686,
      "vention": 3687,
      "AG": 3688,
      "Ġsequ": 3689,
      "Ġscientific": 3690,
      "Ġvirt": 3691,
      "Ġnarr": 3692,
      "Ġappropriate": 3693,
      "erate": 3694,
      "ĠMy": 3695,
      "Ġestablished": 3696,
      "Ġbound": 3697,
      "Ċĉĉĉ": 3698,
      "HE": 3699,
      "Ġdirectly": 3700,
      "lines": 3701,
      "Ġlib": 3702,
      "top": 3703,
      "icate": 3704,
      "Ġult": 3705,
      "msg": 3706,
      "iny": 3707,
      "ancy": 3708,
      "Ġvideo": 3709,
      "Ġhope": 3710,
      "ceed": 3711,
      "ĠKing": 3712,
      "Ġbit": 3713,
      "ĠGu": 3714,
      "illing": 3715,
      "Ġusers": 3716,
      "related": 3717,
      "Ġlarger": 3718,
      "Ġdynam": 3719,
      "Ġcover": 3720,
      "abilities": 3721,
      "sg": 3722,
      "ĊĠĠĠĠĠĠĠĠĠĠĠĠ": 3723,
      "names": 3724,
      "Ġcompanies": 3725,
      "Ġidentity": 3726,
      "Ġfascinating": 3727,
      "DO": 3728,
      "Ġhar": 3729,
      "Ġdetermine": 3730,
      "overy": 3731,
      "filter": 3732,
      "arning": 3733,
      "ĠOver": 3734,
      "haps": 3735,
      "Ġhor": 3736,
      "ellig": 3737,
      "Ġactions": 3738,
      "Ġing": 3739,
      "rip": 3740,
      "Ġobtain": 3741,
      "open": 3742,
      "Ġvacc": 3743,
      "Ġsche": 3744,
      "Ġformat": 3745,
      "product": 3746,
      "idge": 3747,
      "Ġexisting": 3748,
      "Ġcivil": 3749,
      "Ġconnections": 3750,
      "Ġcelebr": 3751,
      "Ġdb": 3752,
      "ĠNow": 3753,
      "inate": 3754,
      "rix": 3755,
      "Ġprojects": 3756,
      "encies": 3757,
      "gor": 3758,
      "net": 3759,
      "Ġcommit": 3760,
      "eper": 3761,
      "Ġdim": 3762,
      "rie": 3763,
      "Ġcontemporary": 3764,
      "Ġdifference": 3765,
      "uge": 3766,
      "rench": 3767,
      "Ġeye": 3768,
      "gl": 3769,
      "Ġemp": 3770,
      "Ġrand": 3771,
      "Ġnavig": 3772,
      "mar": 3773,
      "Ġeasily": 3774,
      "Ġincluded": 3775,
      "Ġexamples": 3776,
      "Ġfoot": 3777,
      "urs": 3778,
      "Ġsil": 3779,
      "params": 3780,
      "Ġnegative": 3781,
      "alls": 3782,
      "ĠScience": 3783,
      "Ġago": 3784,
      "Ġvariety": 3785,
      "ĠReturn": 3786,
      "Ġweb": 3787,
      "iful": 3788,
      "Ġyield": 3789,
      "ĠDo": 3790,
      "df": 3791,
      "idden": 3792,
      "life": 3793,
      "uries": 3794,
      "oke": 3795,
      "Ġorganizations": 3796,
      "Ġgot": 3797,
      "Ġadminist": 3798,
      "Ġemphas": 3799,
      "apan": 3800,
      "Ġlimited": 3801,
      "Ġlif": 3802,
      "plot": 3803,
      "Ġanswer": 3804,
      "hol": 3805,
      "Ġclin": 3806,
      "inated": 3807,
      "Ġinsights": 3808,
      "mark": 3809,
      "pi": 3810,
      "Ġlegal": 3811,
      "uman": 3812,
      "Ġcontains": 3813,
      "Ġlearned": 3814,
      "Ġexpand": 3815,
      "close": 3816,
      "Ġbalance": 3817,
      "Ġ]": 3818,
      "Ġconcent": 3819,
      "[:": 3820,
      "Ġteachers": 3821,
      "Ġbacter": 3822,
      "Ġelement": 3823,
      "Ġcharacters": 3824,
      "Ġanimal": 3825,
      "UN": 3826,
      "ns": 3827,
      "Ġproperties": 3828,
      "ding": 3829,
      "Ġcam": 3830,
      "find": 3831,
      "ĠSchool": 3832,
      "Ġquite": 3833,
      "ystem": 3834,
      "sum": 3835,
      "query": 3836,
      "Ġdiscover": 3837,
      "Ġserious": 3838,
      "Ġfinal": 3839,
      "ille": 3840,
      "Ġdiseases": 3841,
      "ament": 3842,
      "Ġflu": 3843,
      "Ġcitiz": 3844,
      "Ġhands": 3845,
      "water": 3846,
      "Ġmemory": 3847,
      "current": 3848,
      "ha": 3849,
      "anks": 3850,
      "Ġwood": 3851,
      "vol": 3852,
      "keys": 3853,
      "osure": 3854,
      "Ġsignificantly": 3855,
      "unk": 3856,
      "Ġprotection": 3857,
      "Ġplaces": 3858,
      "Ġwond": 3859,
      "ĠSm": 3860,
      "At": 3861,
      "Ġstructures": 3862,
      "ools": 3863,
      "ĠAfrican": 3864,
      "pack": 3865,
      "Ġang": 3866,
      "Ġcontinu": 3867,
      "ĠChina": 3868,
      "Ġtrying": 3869,
      "ailed": 3870,
      "sect": 3871,
      "Ġproced": 3872,
      "orders": 3873,
      "Ġtesting": 3874,
      "onom": 3875,
      "ĠAnt": 3876,
      "ĠPres": 3877,
      "Ġsec": 3878,
      "Ġdou": 3879,
      "Ġfa": 3880,
      "gy": 3881,
      "ĠMus": 3882,
      "oken": 3883,
      "irection": 3884,
      "Ġdescription": 3885,
      "Ġdang": 3886,
      "Ġmachine": 3887,
      "items": 3888,
      "Ġcompre": 3889,
      "ĠUnderstanding": 3890,
      "Ġlandsc": 3891,
      "Ġbra": 3892,
      "Ġchallenge": 3893,
      "Ġeyes": 3894,
      "Ġpoor": 3895,
      "ocks": 3896,
      "Ġimmedi": 3897,
      "uple": 3898,
      "Ġsea": 3899,
      "lection": 3900,
      "Ġserve": 3901,
      "Ġrandom": 3902,
      "ĠIS": 3903,
      "Ġfeature": 3904,
      "ipment": 3905,
      "Ġveh": 3906,
      "urt": 3907,
      "sl": 3908,
      "ech": 3909,
      "Ġreported": 3910,
      "Ġreach": 3911,
      "types": 3912,
      "Ġvers": 3913,
      "Ġrates": 3914,
      "ĠTechn": 3915,
      "ffect": 3916,
      "Ġcentral": 3917,
      "ildren": 3918,
      "Ġhyd": 3919,
      "wo": 3920,
      "Ġmix": 3921,
      "ĠWell": 3922,
      "Ġfront": 3923,
      "Get": 3924,
      "Ġtend": 3925,
      "Ġmis": 3926,
      "**:": 3927,
      "Ġfair": 3928,
      "Ġbill": 3929,
      "Ġlabor": 3930,
      "Ġtypically": 3931,
      "Ġhot": 3932,
      "anch": 3933,
      "Ġexercise": 3934,
      "ying": 3935,
      "gorith": 3936,
      "Ġsupply": 3937,
      "ĠFirst": 3938,
      "Sh": 3939,
      "project": 3940,
      "Ġnight": 3941,
      "Ġnovel": 3942,
      "ĠMin": 3943,
      "force": 3944,
      "sk": 3945,
      "Ġproduced": 3946,
      "Ġconstruct": 3947,
      "Ġcapac": 3948,
      "hing": 3949,
      "ias": 3950,
      "Ġwhose": 3951,
      "cr": 3952,
      "Ġcore": 3953,
      "Ġallowing": 3954,
      "ĠTrans": 3955,
      "Ġliterature": 3956,
      "men": 3957,
      "Ġwind": 3958,
      "Ġbad": 3959,
      "Ġdemand": 3960,
      "Ġpan": 3961,
      "Ġpropos": 3962,
      "eline": 3963,
      "Ġdecre": 3964,
      "Ġcosts": 3965,
      "Ġcollection": 3966,
      "Ġprotein": 3967,
      "Ġmiss": 3968,
      "Ġrapid": 3969,
      "oles": 3970,
      "Ġbur": 3971,
      "Ġefficient": 3972,
      "Ġmess": 3973,
      "ĠEach": 3974,
      "icon": 3975,
      "Ġsetting": 3976,
      "pace": 3977,
      "Ġdry": 3978,
      "Ġprivate": 3979,
      "ĠEuropean": 3980,
      "icies": 3981,
      "ĠCount": 3982,
      "ĠDevelop": 3983,
      "Ġobj": 3984,
      "Ġtrees": 3985,
      "ken": 3986,
      "reate": 3987,
      "ĠOther": 3988,
      "Ġsurrounding": 3989,
      "ql": 3990,
      "Ġmention": 3991,
      "column": 3992,
      "rong": 3993,
      "Ġseason": 3994,
      "debug": 3995,
      "Ġsave": 3996,
      "expected": 3997,
      "Ġthous": 3998,
      "Ġfit": 3999,
      "Ġjud": 4000,
      "Ġadvant": 4001,
      "Ġsus": 4002,
      "Ġconstant": 4003,
      "Ġstore": 4004,
      "Ġremove": 4005,
      "illi": 4006,
      "Ġsoon": 4007,
      "Ġder": 4008,
      "Ġrule": 4009,
      "Ġchoose": 4010,
      "ters": 4011,
      "ius": 4012,
      "Ġwaste": 4013,
      "Ġdepend": 4014,
      "ĠIndian": 4015,
      "root": 4016,
      "elcome": 4017,
      "arlier": 4018,
      "last": 4019,
      "eta": 4020,
      "ĠOur": 4021,
      "ĠRep": 4022,
      "wide": 4023,
      "Ġdefin": 4024,
      "Ġspeak": 4025,
      "Ġlaws": 4026,
      "Ġarchitect": 4027,
      "ultural": 4028,
      "Ċĉĉĉĉ": 4029,
      "Ġgenerally": 4030,
      "service": 4031,
      "vest": 4032,
      "ensions": 4033,
      "copy": 4034,
      "Ġcard": 4035,
      "IR": 4036,
      "Ġgoal": 4037,
      "enses": 4038,
      "Ġstrength": 4039,
      "Ġforward": 4040,
      "env": 4041,
      "Ġearth": 4042,
      "Ġminutes": 4043,
      "Ġign": 4044,
      ")))": 4045,
      "ĠChapter": 4046,
      "Ġnation": 4047,
      "ĠUse": 4048,
      "Ġroad": 4049,
      "Ġasked": 4050,
      "Ġcontroll": 4051,
      "ANT": 4052,
      "Ġsolutions": 4053,
      "Ġsituation": 4054,
      "Ġcontinued": 4055,
      "Ġprobably": 4056,
      "range": 4057,
      "Ġpow": 4058,
      "Ġthus": 4059,
      "All": 4060,
      "lands": 4061,
      "ino": 4062,
      "ĠChristian": 4063,
      "abetes": 4064,
      "bar": 4065,
      "ana": 4066,
      "ĠEduc": 4067,
      "Ġrespond": 4068,
      "ĠJapan": 4069,
      "igenous": 4070,
      "})": 4071,
      "Ġneighb": 4072,
      "ula": 4073,
      "Ġheld": 4074,
      "Ġmap": 4075,
      "abase": 4076,
      "Ġconcepts": 4077,
      "Ġ->": 4078,
      "apping": 4079,
      "board": 4080,
      "ifier": 4081,
      "objects": 4082,
      "udd": 4083,
      "Ġnumerous": 4084,
      "iles": 4085,
      "Ġpromote": 4086,
      "Ġconcerns": 4087,
      "Model": 4088,
      "overn": 4089,
      "Ġestim": 4090,
      "Ġcenter": 4091,
      "Ġperfect": 4092,
      "Ġcapital": 4093,
      "Ġworkers": 4094,
      "Ġpick": 4095,
      "Ġtechnologies": 4096,
      "String": 4097,
      "pan": 4098,
      "ta": 4099,
      "Ġclient": 4100,
      "Ġemail": 4101,
      "pen": 4102,
      "Ġpurpose": 4103,
      "Ġfight": 4104,
      "roduction": 4105,
      "pat": 4106,
      "igration": 4107,
      "Ġiniti": 4108,
      "ĠAustral": 4109,
      "Ġtitle": 4110,
      "mock": 4111,
      "Ġpassed": 4112,
      "ĠÂ": 4113,
      "oll": 4114,
      "Ġlabel": 4115,
      "Ġprofessional": 4116,
      "Ġlogging": 4117,
      "hemat": 4118,
      "Ġstage": 4119,
      "ĠAlthough": 4120,
      "Ġinstr": 4121,
      "Ġmeasures": 4122,
      "module": 4123,
      "alueError": 4124,
      "target": 4125,
      "CE": 4126,
      "Ġded": 4127,
      "osition": 4128,
      "Ġadults": 4129,
      "Ġscale": 4130,
      "Ġrunning": 4131,
      "Ġroom": 4132,
      "Ġphilos": 4133,
      "},": 4134,
      "Ġq": 4135,
      "Ġfast": 4136,
      "airs": 4137,
      "ĠRec": 4138,
      "Ind": 4139,
      "na": 4140,
      "igned": 4141,
      "Ġimagine": 4142,
      "ilit": 4143,
      "Ġfeet": 4144,
      "Ġspeed": 4145,
      "Ġscen": 4146,
      "ĠFurther": 4147,
      "Ġcolon": 4148,
      "Ġdifferences": 4149,
      "Ġconsequ": 4150,
      "Ġsociet": 4151,
      "fficient": 4152,
      "Ġexactly": 4153,
      "Ġcarry": 4154,
      "Ġdeeper": 4155,
      "cean": 4156,
      "uk": 4157,
      "Ġhabit": 4158,
      "versity": 4159,
      "gra": 4160,
      "Ġdark": 4161,
      "chang": 4162,
      "iers": 4163,
      "ĠAdditionally": 4164,
      "Let": 4165,
      "ĠTheir": 4166,
      "Case": 4167,
      "Ġmoment": 4168,
      "ĠToday": 4169,
      "Ġinfection": 4170,
      "Ġhighly": 4171,
      "ĠHer": 4172,
      "page": 4173,
      "ĠDef": 4174,
      "ecause": 4175,
      "Ġmount": 4176,
      "Ġrepl": 4177,
      "'ve": 4178,
      "Ġplanning": 4179,
      "PL": 4180,
      "year": 4181,
      "iance": 4182,
      "ĠGo": 4183,
      "iscal": 4184,
      "rict": 4185,
      "Ġdiscovered": 4186,
      "Ġdecisions": 4187,
      "Ġlost": 4188,
      "Ġbackground": 4189,
      "Ġrelevant": 4190,
      "Ġteaching": 4191,
      "filename": 4192,
      "ĠAc": 4193,
      "gener": 4194,
      "cast": 4195,
      "Ġearlier": 4196,
      "Ġbehavi": 4197,
      "ĠFound": 4198,
      "Ġapply": 4199,
      "Form": 4200,
      "Ġdistributed": 4201,
      "ĠServ": 4202,
      "ief": 4203,
      "Ġthird": 4204,
      "ĠRed": 4205,
      "Ġnorm": 4206,
      "Ġurban": 4207,
      "rees": 4208,
      "Ġwide": 4209,
      "ipl": 4210,
      "Ġmilitary": 4211,
      "search": 4212,
      "ooth": 4213,
      "Ġillust": 4214,
      "Ġwent": 4215,
      "Ġjson": 4216,
      "idents": 4217,
      "He": 4218,
      "conf": 4219,
      "Ġopportunity": 4220,
      "Ġsevere": 4221,
      "Ġsolution": 4222,
      "ĊĠĠĠĠĠĠĠĠĠĠĠĠĠĠĠĠĠĠĠĠĠĠĠĠĠĠĠĠĠĠĠĠĠĠĠĠĠĠĠĠĠĠĠĠĠĠĠĠ": 4223,
      "float": 4224,
      "Ġagric": 4225,
      "function": 4226,
      "NU": 4227,
      "Ġdive": 4228,
      "Ġstre": 4229,
      "ĠSystem": 4230,
      "Ġsett": 4231,
      "plications": 4232,
      "bed": 4233,
      "Ġtherapy": 4234,
      "ĠMon": 4235,
      "Ġleaves": 4236,
      "ĠGl": 4237,
      "server": 4238,
      "Ġarri": 4239,
      "Ġmother": 4240,
      "rition": 4241,
      "ĠPython": 4242,
      "Ġimag": 4243,
      "mary": 4244,
      "Ġanything": 4245,
      "Ġofficial": 4246,
      "Ġallowed": 4247,
      "ought": 4248,
      "Imagine": 4249,
      "Ġhon": 4250,
      "elines": 4251,
      "ĠCenter": 4252,
      "Ġ...": 4253,
      "Ġinterpret": 4254,
      "email": 4255,
      "bin": 4256,
      "ĠEd": 4257,
      "ashing": 4258,
      "vis": 4259,
      "Ġmut": 4260,
      "++": 4261,
      "main": 4262,
      "Ġhealthcare": 4263,
      "Ġbirth": 4264,
      "Time": 4265,
      "save": 4266,
      "ĠFrench": 4267,
      "bal": 4268,
      "Ġoperations": 4269,
      "Ġbeautiful": 4270,
      "going": 4271,
      "ĠIN": 4272,
      "Ġsmaller": 4273,
      "Ġgoals": 4274,
      "lock": 4275,
      "Ġdidn": 4276,
      "rest": 4277,
      "useum": 4278,
      "eger": 4279,
      "Ġbrought": 4280,
      "Ġappe": 4281,
      "patch": 4282,
      "Ġvital": 4283,
      "Ġfresh": 4284,
      "Ġord": 4285,
      "Des": 4286,
      "xi": 4287,
      "Ġtiss": 4288,
      "arian": 4289,
      "Ġegg": 4290,
      "Ġdistribution": 4291,
      "Ġimpl": 4292,
      "PE": 4293,
      "Ġexplain": 4294,
      "Ġactual": 4295,
      "Ġdefined": 4296,
      "otal": 4297,
      "Ġdetect": 4298,
      "Ġeffectively": 4299,
      "Ġmath": 4300,
      "Ġdistinct": 4301,
      "Ad": 4302,
      "craft": 4303,
      "eks": 4304,
      "Sc": 4305,
      "Ġinvolve": 4306,
      "estic": 4307,
      "Ġorganization": 4308,
      "ĠOnce": 4309,
      "ĠHere": 4310,
      "Ġtherefore": 4311,
      "cf": 4312,
      "step": 4313,
      "Ġconvers": 4314,
      "ĠConst": 4315,
      "Ġpolicies": 4316,
      "Ġdrink": 4317,
      "has": 4318,
      "ructure": 4319,
      "Ġstyle": 4320,
      "Ġsold": 4321,
      "Ġlat": 4322,
      "Ġtoward": 4323,
      "ensity": 4324,
      "ĠJu": 4325,
      "Ġinteresting": 4326,
      "Ġgender": 4327,
      "Ġequipment": 4328,
      "zz": 4329,
      "Ġten": 4330,
      "Ġadjust": 4331,
      "Ġsharing": 4332,
      "Ġnucle": 4333,
      "Ġrefers": 4334,
      "Ġensuring": 4335,
      "Ġpiece": 4336,
      "ĠAfrica": 4337,
      "Ġbox": 4338,
      "delete": 4339,
      "Ġ'''": 4340,
      "options": 4341,
      "ama": 4342,
      "Ġbeginning": 4343,
      "Ġfear": 4344,
      "pped": 4345,
      "Ġfilled": 4346,
      "::": 4347,
      "show": 4348,
      "Ġdecided": 4349,
      "TP": 4350,
      "ĠEven": 4351,
      "Ġfib": 4352,
      "Ġmole": 4353,
      "Ġbodies": 4354,
      "Ġqual": 4355,
      "Ġserver": 4356,
      "Ġsugar": 4357,
      "property": 4358,
      "____": 4359,
      "Ġmer": 4360,
      "ĠAccording": 4361,
      "tag": 4362,
      "Ġmaster": 4363,
      "Ġstra": 4364,
      "rupt": 4365,
      "Ġsites": 4366,
      "Ġtasks": 4367,
      "inc": 4368,
      "ournal": 4369,
      "Ġchanged": 4370,
      "rows": 4371,
      ");": 4372,
      "Ġcomfort": 4373,
      "ĠCommun": 4374,
      "Ġeating": 4375,
      "hent": 4376,
      "lyph": 4377,
      "Ġreceive": 4378,
      "Ġprofession": 4379,
      "body": 4380,
      "Ġstream": 4381,
      "Ġreduced": 4382,
      "ĠMost": 4383,
      "Ġtrade": 4384,
      "aid": 4385,
      "Ġforces": 4386,
      "command": 4387,
      "Ġdoctor": 4388,
      "Ġwebsite": 4389,
      "equ": 4390,
      "rang": 4391,
      "Ġexpression": 4392,
      "Ġswe": 4393,
      "Ġacqu": 4394,
      "ees": 4395,
      "Ġsample": 4396,
      "strict": 4397,
      "({": 4398,
      "Ġspecifically": 4399,
      "elect": 4400,
      "ifying": 4401,
      "era": 4402,
      "Ġheard": 4403,
      "Ġupd": 4404,
      "Ġbenefit": 4405,
      "Ġauthors": 4406,
      "Ġacad": 4407,
      "usion": 4408,
      "Ġshall": 4409,
      "ping": 4410,
      "Ġreasons": 4411,
      "alt": 4412,
      "imize": 4413,
      "ulated": 4414,
      "Ġtru": 4415,
      "iforn": 4416,
      "Ġnews": 4417,
      "iences": 4418,
      "Ġseems": 4419,
      "ham": 4420,
      "raint": 4421,
      "random": 4422,
      "lin": 4423,
      "Ġlocated": 4424,
      "ML": 4425,
      "Ġbab": 4426,
      "settings": 4427,
      "Ġwa": 4428,
      "ĠOF": 4429,
      "Ġpeace": 4430,
      "ĠCur": 4431,
      "undred": 4432,
      "ros": 4433,
      "oe": 4434,
      "ĠDuring": 4435,
      "ĠAdd": 4436,
      "uild": 4437,
      "Ġsaw": 4438,
      "link": 4439,
      "ĠII": 4440,
      "Ġemotional": 4441,
      "Pl": 4442,
      "Ġawareness": 4443,
      "abs": 4444,
      "Ġdistance": 4445,
      "Ġbreath": 4446,
      "Ġrisks": 4447,
      "Ġfloat": 4448,
      "Ġdrug": 4449,
      "Ġadopt": 4450,
      "Ġwatch": 4451,
      "Ġaffected": 4452,
      "house": 4453,
      "HT": 4454,
      "olic": 4455,
      "match": 4456,
      "aters": 4457,
      "Ġcitizens": 4458,
      "No": 4459,
      "ĊĠĠĠĠĠĠĠĠĠĠĠĠĠĠĠĠĠĠĠĠĠĠĠĠĠĠĠĠĠĠĠ": 4460,
      "Ġwindow": 4461,
      "Ġexposure": 4462,
      "---": 4463,
      "Ġteach": 4464,
      "Ġevolution": 4465,
      "cohol": 4466,
      "yl": 4467,
      "dered": 4468,
      "ĠThen": 4469,
      "(_": 4470,
      "rael": 4471,
      "En": 4472,
      "resents": 4473,
      "Ġraw": 4474,
      "Ġguide": 4475,
      "Ġintellig": 4476,
      "mitted": 4477,
      "stream": 4478,
      "ĠRead": 4479,
      "Ġapprox": 4480,
      "Ġalternative": 4481,
      "device": 4482,
      "rab": 4483,
      "Ġheight": 4484,
      "roy": 4485,
      "Ġevol": 4486,
      "ĠGerman": 4487,
      "Ġencount": 4488,
      "Ġrat": 4489,
      "CON": 4490,
      "ctors": 4491,
      "Ġalthough": 4492,
      "zing": 4493,
      "Ġacid": 4494,
      "ĠKe": 4495,
      "Ġsolar": 4496,
      "ĠHistory": 4497,
      "ped": 4498,
      "Ġadvent": 4499,
      "ux": 4500,
      "aught": 4501,
      "ouch": 4502,
      "ulture": 4503,
      "ĠSet": 4504,
      "Ġsexual": 4505,
      "={": 4506,
      "Ġcop": 4507,
      "ĠAg": 4508,
      "Ġreaders": 4509,
      "Ġfully": 4510,
      "exec": 4511,
      "Ġfigure": 4512,
      "ĠSw": 4513,
      "ĠCong": 4514,
      "Ġpopulations": 4515,
      "Ġvict": 4516,
      "ether": 4517,
      "Ġvit": 4518,
      "Ġmode": 4519,
      "Ġdivid": 4520,
      "Ġpieces": 4521,
      "Ġdirection": 4522,
      "Ġtrend": 4523,
      "ifornia": 4524,
      "ĠHar": 4525,
      "aur": 4526,
      "Ġden": 4527,
      "Ġfaith": 4528,
      "SS": 4529,
      "ESS": 4530,
      "aste": 4531,
      "Ġmember": 4532,
      "Ġcompl": 4533,
      "Ġplaying": 4534,
      "Ġeducational": 4535,
      "Ġfindings": 4536,
      "Ġplanet": 4537,
      "opyright": 4538,
      "Ġconclusion": 4539,
      "Ġteacher": 4540,
      "ĠRel": 4541,
      "Ġlived": 4542,
      "Ġupdate": 4543,
      "Ġtold": 4544,
      "While": 4545,
      "mosp": 4546,
      "assertTrue": 4547,
      "Ġpurch": 4548,
      "Ġbul": 4549,
      "Ġfuel": 4550,
      "ingu": 4551,
      "Ġgradu": 4552,
      "ĠInstitute": 4553,
      "Ġmsg": 4554,
      "Ġstorage": 4555,
      "Ġ>>>": 4556,
      "Ġengaging": 4557,
      "Ġrecords": 4558,
      "cil": 4559,
      "iding": 4560,
      "Ġweather": 4561,
      "These": 4562,
      "ĠInternational": 4563,
      "Ġcontract": 4564,
      "Inst": 4565,
      "Ġprinc": 4566,
      "ĠSpec": 4567,
      "Ġfilter": 4568,
      "Ġbusinesses": 4569,
      "reedom": 4570,
      "ares": 4571,
      "ributes": 4572,
      "Ġfeelings": 4573,
      "Ġvariable": 4574,
      "oper": 4575,
      "Ġnothing": 4576,
      "Ġcultures": 4577,
      "Ġnote": 4578,
      "Ġcoord": 4579,
      "Ġhyp": 4580,
      "number": 4581,
      "icated": 4582,
      "Text": 4583,
      "tered": 4584,
      "ĠDon": 4585,
      "Ġsustainable": 4586,
      "Ġmid": 4587,
      "dep": 4588,
      "Ġice": 4589,
      "Ġapproaches": 4590,
      "Ġolder": 4591,
      "Ġweeks": 4592,
      "atur": 4593,
      "Ġargument": 4594,
      "Ġschol": 4595,
      "Ġreality": 4596,
      "Ġreducing": 4597,
      "ico": 4598,
      "Ġpartners": 4599,
      "Ġtel": 4600,
      "Ġleave": 4601,
      "Add": 4602,
      "rote": 4603,
      "Ġalone": 4604,
      "Ġrise": 4605,
      "ube": 4606,
      "Ġmaintaining": 4607,
      "Ġri": 4608,
      "Ġcoast": 4609,
      "Ġconstruction": 4610,
      "ĠAre": 4611,
      "Ġconnected": 4612,
      "Ġcomprehens": 4613,
      "aled": 4614,
      "Ġenviron": 4615,
      "ĠLear": 4616,
      "Ġlessons": 4617,
      "fiscal": 4618,
      "andid": 4619,
      "block": 4620,
      "ibly": 4621,
      "Ġlibrary": 4622,
      "rief": 4623,
      "ĠData": 4624,
      "cell": 4625,
      ".;": 4626,
      "Ġstandards": 4627,
      "Ġhelping": 4628,
      "Ġcreation": 4629,
      "?\"": 4630,
      "ĠJan": 4631,
      "Exception": 4632,
      "ica": 4633,
      "rogen": 4634,
      "position": 4635,
      "Ġthoughts": 4636,
      "func": 4637,
      "Ġphen": 4638,
      "ĠAmericans": 4639,
      "mode": 4640,
      "Object": 4641,
      "Up": 4642,
      "och": 4643,
      "reme": 4644,
      "Ġstarting": 4645,
      "Ġrequirements": 4646,
      "Ġapplied": 4647,
      "Ġfinding": 4648,
      "respond": 4649,
      "Ġassum": 4650,
      "Ġbelong": 4651,
      "Ġfollowed": 4652,
      "outhern": 4653,
      "tr": 4654,
      "Ġchoices": 4655,
      "ĠPeople": 4656,
      "Ġcurrently": 4657,
      "oo": 4658,
      "ĠLab": 4659,
      "Ġplays": 4660,
      "Ġdiabetes": 4661,
      "aset": 4662,
      "Ġgenetic": 4663,
      "Ġalgorith": 4664,
      "ĠGree": 4665,
      "see": 4666,
      "ĠEl": 4667,
      "itutions": 4668,
      "Ġhappens": 4669,
      "Ġhair": 4670,
      "orial": 4671,
      "cache": 4672,
      "Ġ},": 4673,
      "Ġmoving": 4674,
      "Ġinstruct": 4675,
      "ĠUnit": 4676,
      "ĠOR": 4677,
      "cal": 4678,
      "det": 4679,
      "Ġmiddle": 4680,
      "Ġentry": 4681,
      "Ġinfect": 4682,
      "Ġcapacity": 4683,
      "ĠDepartment": 4684,
      "erved": 4685,
      "Ġrelease": 4686,
      "Ġparameters": 4687,
      "Ġbasis": 4688,
      "Ġvul": 4689,
      "anguages": 4690,
      "Ġmonit": 4691,
      "'}),": 4692,
      "ĊĠĠĠĠĊĠĠĠ": 4693,
      "ĠCalifornia": 4694,
      "Ġbond": 4695,
      "ĠGreat": 4696,
      "pril": 4697,
      "iot": 4698,
      "Ġgives": 4699,
      "Ġenter": 4700,
      "Ġchoice": 4701,
      "Ġfamous": 4702,
      "inese": 4703,
      "Ġmanage": 4704,
      "address": 4705,
      "ira": 4706,
      "Ġengage": 4707,
      "Ġfruit": 4708,
      "Ġcou": 4709,
      "Ġanti": 4710,
      "icode": 4711,
      "Ġoutcomes": 4712,
      "ĠVal": 4713,
      "ync": 4714,
      "Ġtrig": 4715,
      "Ġhundred": 4716,
      "Ġsession": 4717,
      "Ġdead": 4718,
      "ocr": 4719,
      "Ġcolors": 4720,
      "Ġgoes": 4721,
      "Ġonto": 4722,
      "Ġdespite": 4723,
      "Ġadvanced": 4724,
      "color": 4725,
      "Ġinfo": 4726,
      "domain": 4727,
      "uary": 4728,
      "oses": 4729,
      "Ġrecently": 4730,
      "Ġwanted": 4731,
      "ĠIsrael": 4732,
      "ĠCor": 4733,
      "itis": 4734,
      "Ġpen": 4735,
      "Ġoccurs": 4736,
      "Ġcities": 4737,
      "Ġembra": 4738,
      "ypes": 4739,
      "ocal": 4740,
      "Config": 4741,
      "xiety": 4742,
      "ĠRob": 4743,
      "Ġresulting": 4744,
      "Ġadvance": 4745,
      "being": 4746,
      "fold": 4747,
      "ATE": 4748,
      "Ġsigns": 4749,
      "Ġartists": 4750,
      "ĠMoreover": 4751,
      "vari": 4752,
      "Ġdiversity": 4753,
      "Ġregions": 4754,
      "Ġsend": 4755,
      "Ġchallenging": 4756,
      "Ġbirds": 4757,
      "Ġingred": 4758,
      "icip": 4759,
      "Ġexhib": 4760,
      "Ġpicture": 4761,
      "Ġhosp": 4762,
      "ĠInter": 4763,
      "Ġsituations": 4764,
      "Ġtopics": 4765,
      "Ġrain": 4766,
      "ĠChurch": 4767,
      "Ġrepresents": 4768,
      "rical": 4769,
      "Ġdepending": 4770,
      "Ġexcess": 4771,
      "Ġcompar": 4772,
      "ĠFurthermore": 4773,
      "Ġhous": 4774,
      "Ġconvert": 4775,
      "ĠJes": 4776,
      "Ġcold": 4777,
      "Ġlargest": 4778,
      "ĠGet": 4779,
      "Ġmob": 4780,
      "ĠSur": 4781,
      "Ġ'/": 4782,
      "width": 4783,
      ")]": 4784,
      "Ġperhaps": 4785,
      "Ġsummer": 4786,
      "ĠMarch": 4787,
      "Ġfactor": 4788,
      "Ġfeeling": 4789,
      "Ġmal": 4790,
      "Ġunc": 4791,
      "ilarly": 4792,
      "Ġnearly": 4793,
      "var": 4794,
      "Ġwest": 4795,
      "Ġresil": 4796,
      "Ġwrong": 4797,
      "Ġsurpr": 4798,
      "Ġexperiment": 4799,
      "ĠAug": 4800,
      "Ġhimself": 4801,
      "Ġsolid": 4802,
      "Ġburn": 4803,
      "roid": 4804,
      "Ġblue": 4805,
      "Ġchanging": 4806,
      "template": 4807,
      "Ġrepe": 4808,
      "Ġgames": 4809,
      "Ġrecommend": 4810,
      "Ġdescribed": 4811,
      "Ġgets": 4812,
      "Ġaw": 4813,
      "inding": 4814,
      "Ġclasses": 4815,
      "urance": 4816,
      "irt": 4817,
      "ocket": 4818,
      "ĠRiver": 4819,
      "EST": 4820,
      "ĠEducation": 4821,
      "Ġbacteria": 4822,
      "ĠTO": 4823,
      "Che": 4824,
      "Ġnotice": 4825,
      "Ġgiving": 4826,
      "ĊĊĠĠĠĠĠĠĠĠĠĠĠĠĠĠĠ": 4827,
      "Ġfederal": 4828,
      "ĊĠĠĠĠĠĠĠĠĠĠĠĠĠĠ": 4829,
      "Ġgenerate": 4830,
      "core": 4831,
      "contain": 4832,
      "ĠImagine": 4833,
      "Ġtruth": 4834,
      "but": 4835,
      "Ġadvoc": 4836,
      "Ġmathemat": 4837,
      "Ġcompletely": 4838,
      "Ġnutri": 4839,
      "Ġcraft": 4840,
      "Ġborn": 4841,
      "Ġprocessing": 4842,
      "Ġincreasingly": 4843,
      "Ġfacilit": 4844,
      "ĠExpl": 4845,
      "Ġrot": 4846,
      "ĠReturns": 4847,
      "ded": 4848,
      "ĠChar": 4849,
      "session": 4850,
      "ĠPress": 4851,
      "Ġprepar": 4852,
      "ĠCanada": 4853,
      "Ġbecoming": 4854,
      "Ġillness": 4855,
      "Ġdtype": 4856,
      "greg": 4857,
      "ĠPark": 4858,
      "umber": 4859,
      "Ġrare": 4860,
      "Ġenhance": 4861,
      "Ġenvironments": 4862,
      "Ġworth": 4863,
      "Ġcry": 4864,
      "Ġinternal": 4865,
      "iveness": 4866,
      "Ġcounter": 4867,
      "Ġlogger": 4868,
      "ords": 4869,
      "Ġtransfer": 4870,
      "Ph": 4871,
      "Ġcoming": 4872,
      "Ġplans": 4873,
      "Ġfavorite": 4874,
      "section": 4875,
      "uls": 4876,
      "Ġexpert": 4877,
      "MA": 4878,
      "Ġhandle": 4879,
      "zer": 4880,
      "ĠLaw": 4881,
      "Ġoperation": 4882,
      "Ġcommerc": 4883,
      "*-": 4884,
      "Some": 4885,
      "password": 4886,
      "task": 4887,
      "Ġhighlight": 4888,
      "description": 4889,
      "cmd": 4890,
      "Ġthread": 4891,
      "amental": 4892,
      "Ġvary": 4893,
      "Ġready": 4894,
      "Ġhappen": 4895,
      "Ġeconomy": 4896,
      "Ġextract": 4897,
      "Ġmentioned": 4898,
      "Ġattract": 4899,
      "Ġatmosp": 4900,
      "frame": 4901,
      "Ġking": 4902,
      "Ġabsor": 4903,
      "EL": 4904,
      "raction": 4905,
      "Ġphilosoph": 4906,
      "Ġresistance": 4907,
      "Ġinfluen": 4908,
      "`.": 4909,
      "iate": 4910,
      "TestCase": 4911,
      "Ġoccup": 4912,
      "ĠPat": 4913,
      "Ġinterests": 4914,
      "Ġfelt": 4915,
      "ersion": 4916,
      "Ġscript": 4917,
      "osystem": 4918,
      "Ġrock": 4919,
      "Ġconsumption": 4920,
      "Ġdegree": 4921,
      "Ġarguments": 4922,
      "ĠBlack": 4923,
      "ĠInstead": 4924,
      "hab": 4925,
      "ned": 4926,
      "ĠAlso": 4927,
      "strip": 4928,
      "Ġboard": 4929,
      "ĠDay": 4930,
      "Ġincome": 4931,
      "azing": 4932,
      "TR": 4933,
      "Wid": 4934,
      "ibilities": 4935,
      "Ġinvent": 4936,
      "ictionary": 4937,
      "ĠAssoci": 4938,
      "ĠSer": 4939,
      "Ġdeal": 4940,
      "From": 4941,
      "clude": 4942,
      "ĠUnion": 4943,
      "Ġrelative": 4944,
      "Ġweak": 4945,
      "cp": 4946,
      "ĠSoci": 4947,
      "Ġgenerations": 4948,
      "Ġcausing": 4949,
      "Ġpromoting": 4950,
      "ĠJune": 4951,
      "first": 4952,
      "Ġreturned": 4953,
      "Ġquery": 4954,
      "Ġpet": 4955,
      "ĠEngland": 4956,
      "ĠFoundation": 4957,
      "ests": 4958,
      "Ġprice": 4959,
      "iable": 4960,
      "Ġspect": 4961,
      "ĠChinese": 4962,
      "Ġperspectives": 4963,
      "Ġdomain": 4964,
      "ĠPresident": 4965,
      "Ġenable": 4966,
      "rew": 4967,
      "Ġwis": 4968,
      "','": 4969,
      "ĠSub": 4970,
      "Ġforeign": 4971,
      "orthern": 4972,
      "ĠValueError": 4973,
      "Ġcontaining": 4974,
      "Ġmiles": 4975,
      "iced": 4976,
      "Ġanyone": 4977,
      "Ġextrem": 4978,
      "pathy": 4979,
      "Ġpresence": 4980,
      "Ġimmune": 4981,
      "hist": 4982,
      "Ġemotions": 4983,
      "Ġstim": 4984,
      "ĠFl": 4985,
      "Ġ-*-": 4986,
      "ĠOct": 4987,
      "Ġcultiv": 4988,
      "Ġeasier": 4989,
      "Ġjournal": 4990,
      "Ġwrote": 4991,
      "Ġincred": 4992,
      "dist": 4993,
      "Ġreplace": 4994,
      "Ġvolume": 4995,
      "ightly": 4996,
      "Ġcreative": 4997,
      "sol": 4998,
      "Ġball": 4999,
      "urb": 5000,
      "ĠGovern": 5001,
      "Ġtrain": 5002,
      "Ġthousands": 5003,
      "Ġmovements": 5004,
      "Ġvulner": 5005,
      "Ġwoman": 5006,
      "Ġsav": 5007,
      "TH": 5008,
      "Ġexternal": 5009,
      "Ġcogn": 5010,
      "Ġglyph": 5011,
      "ĊĠĠĠĠĠĠĠĠĠĠĠĠĠ": 5012,
      "ĠKey": 5013,
      "make": 5014,
      "Ġcoll": 5015,
      "Ġbeliefs": 5016,
      "VER": 5017,
      "Ġworked": 5018,
      "Ġ''": 5019,
      "ĠRef": 5020,
      "called": 5021,
      "gment": 5022,
      "ga": 5023,
      "Ġgir": 5024,
      "Ġexperienced": 5025,
      "Ġmission": 5026,
      "ĠEast": 5027,
      "Ġerrors": 5028,
      "OP": 5029,
      "ĠSince": 5030,
      "Ġglass": 5031,
      "Ġfemale": 5032,
      "App": 5033,
      "std": 5034,
      "Ġassist": 5035,
      "EX": 5036,
      "Ġfrequently": 5037,
      "ĠSom": 5038,
      "Ġtopic": 5039,
      "hest": 5040,
      "Ġspecified": 5041,
      "ĠRemember": 5042,
      "ashington": 5043,
      "ĠGNU": 5044,
      "Ġcommonly": 5045,
      "Ġexamine": 5046,
      "Ġcorrespond": 5047,
      "Ġlanguages": 5048,
      "Ġcircum": 5049,
      "Ġmo": 5050,
      "Log": 5051,
      "Ġclinical": 5052,
      "Ġemissions": 5053,
      "ĠProgram": 5054,
      "mm": 5055,
      "sche": 5056,
      "Ġpassword": 5057,
      "ographic": 5058,
      "Ġmessages": 5059,
      "aul": 5060,
      "normal": 5061,
      "rics": 5062,
      "Ġparser": 5063,
      "TER": 5064,
      "rome": 5065,
      "ĠDav": 5066,
      "Ġvision": 5067,
      "Ġtransl": 5068,
      "hetic": 5069,
      "Ġsouth": 5070,
      "semb": 5071,
      "Ġtechnique": 5072,
      "local": 5073,
      "Another": 5074,
      "Ġtraditions": 5075,
      "antic": 5076,
      "Ġfostering": 5077,
      "sign": 5078,
      "Ġgarden": 5079,
      "Ġeventually": 5080,
      "Ġwinter": 5081,
      "Ġalcohol": 5082,
      "ĠHigh": 5083,
      "However": 5084,
      "Ġwonder": 5085,
      "Ġbuy": 5086,
      "Ġdelve": 5087,
      "atically": 5088,
      "ĠAP": 5089,
      "Ġidentified": 5090,
      "Ġshowed": 5091,
      "Ġadding": 5092,
      "Ġcomponent": 5093,
      "ted": 5094,
      "Ġongoing": 5095,
      "Ġseparate": 5096,
      "ĊĠĠĠĠĠĠĠĠĊĠĠĠĠĠĠĠ": 5097,
      "AME": 5098,
      "ĠCity": 5099,
      "ĠJesus": 5100,
      "Base": 5101,
      "itage": 5102,
      "Ġfinally": 5103,
      "Ġprefer": 5104,
      "enty": 5105,
      "ester": 5106,
      "Ġappreciate": 5107,
      "ĠIts": 5108,
      "Ġsignificance": 5109,
      "ĠApril": 5110,
      "Ġgather": 5111,
      "ĠWater": 5112,
      "ii": 5113,
      "Ġinsect": 5114,
      "Ġtox": 5115,
      "acing": 5116,
      "Ġimproved": 5117,
      "Ġbeg": 5118,
      "Ġthemes": 5119,
      "bose": 5120,
      "ado": 5121,
      "Ġkwargs": 5122,
      "pop": 5123,
      "Ġgold": 5124,
      "conds": 5125,
      "akers": 5126,
      "FA": 5127,
      "Ġnative": 5128,
      "ĠId": 5129,
      "CC": 5130,
      "xml": 5131,
      "Ġreference": 5132,
      "]:": 5133,
      "sim": 5134,
      "Ġnorth": 5135,
      "Ġmedicine": 5136,
      "Ġplot": 5137,
      "Many": 5138,
      "tk": 5139,
      "ĠSept": 5140,
      "Ġprofessionals": 5141,
      "ĠHol": 5142,
      "Qu": 5143,
      "ĠMc": 5144,
      "ĠAI": 5145,
      "ĠBo": 5146,
      "Ġjustice": 5147,
      "Ġparticipants": 5148,
      "Ġcollabor": 5149,
      "win": 5150,
      ")),": 5151,
      "Ġaim": 5152,
      "Return": 5153,
      "sec": 5154,
      "Value": 5155,
      "unit": 5156,
      "ris": 5157,
      "icing": 5158,
      "ĠAtt": 5159,
      "{}": 5160,
      "Ġsounds": 5161,
      "Ġhol": 5162,
      "ipped": 5163,
      "Ġvirtual": 5164,
      "Ġsac": 5165,
      "Ġvegetables": 5166,
      "ftware": 5167,
      "mal": 5168,
      "eria": 5169,
      "Ġunivers": 5170,
      "Ġrang": 5171,
      "long": 5172,
      "Ġflex": 5173,
      "Ġsupported": 5174,
      "ffer": 5175,
      "Ġobserved": 5176,
      "Here": 5177,
      "Ġdjango": 5178,
      "ober": 5179,
      "Ġefficiency": 5180,
      "Ġworldwide": 5181,
      "Ġfocused": 5182,
      "').": 5183,
      "Ġglob": 5184,
      "Ġseeking": 5185,
      "urg": 5186,
      "Ġvast": 5187,
      "ogen": 5188,
      "ĠEnvironment": 5189,
      "Ġclassroom": 5190,
      "Ġconsequences": 5191,
      "mes": 5192,
      "child": 5193,
      "ĠBi": 5194,
      "Ġtag": 5195,
      "Ġanxiety": 5196,
      "Ġregist": 5197,
      "Ġhelped": 5198,
      "Ġexception": 5199,
      "Sub": 5200,
      "aign": 5201,
      "faces": 5202,
      "Ġcharacteristics": 5203,
      "Ġpregn": 5204,
      "Ġourselves": 5205,
      "sible": 5206,
      "etch": 5207,
      "Py": 5208,
      "Ġbelieved": 5209,
      "Ġlandscape": 5210,
      "ĠCopyright": 5211,
      "ĠWilli": 5212,
      "pty": 5213,
      "ptions": 5214,
      "Ġsignal": 5215,
      "DA": 5216,
      "ca": 5217,
      "rops": 5218,
      "Ġrestrict": 5219,
      "Ġcert": 5220,
      "ĠLa": 5221,
      "Ġparty": 5222,
      "Ġexecut": 5223,
      "Ġstrategy": 5224,
      "Ġimpos": 5225,
      "Ġdisorder": 5226,
      "ponse": 5227,
      "ingly": 5228,
      "ĠHIV": 5229,
      "ĠRoman": 5230,
      "ĠIslam": 5231,
      "ĠAv": 5232,
      "draw": 5233,
      "Ġmilk": 5234,
      "icit": 5235,
      "weight": 5236,
      "Ġpages": 5237,
      "Ġstaff": 5238,
      "Ġmotiv": 5239,
      "Ġhop": 5240,
      "Ġinvolving": 5241,
      "look": 5242,
      "Ġteeth": 5243,
      "ĠException": 5244,
      "ĠTherefore": 5245,
      "ĠJournal": 5246,
      "CR": 5247,
      "Ġfreedom": 5248,
      "Ġcontinues": 5249,
      "ĠTr": 5250,
      "After": 5251,
      "View": 5252,
      "igure": 5253,
      "Ġsyn": 5254,
      "Why": 5255,
      "[-": 5256,
      "âĢ¢": 5257,
      "uses": 5258,
      "Ġformed": 5259,
      "Ġfol": 5260,
      "cular": 5261,
      "rep": 5262,
      "Ġfather": 5263,
      "comple": 5264,
      "SD": 5265,
      "orical": 5266,
      "Ġgeneration": 5267,
      "ĠOf": 5268,
      "only": 5269,
      "Ġvill": 5270,
      "sm": 5271,
      "Ġast": 5272,
      "Ġplaced": 5273,
      "Have": 5274,
      "ĠThus": 5275,
      "Ġlegis": 5276,
      "Ġrace": 5277,
      "Ġgene": 5278,
      "Ġdialog": 5279,
      "Ġsecret": 5280,
      "Ġengineering": 5281,
      "ĠConf": 5282,
      "ressed": 5283,
      "scale": 5284,
      "Ġacademic": 5285,
      "cor": 5286,
      "Ġwin": 5287,
      "Ġaren": 5288,
      "ĠÃ": 5289,
      "ĠList": 5290,
      "Ġpref": 5291,
      "Ġopin": 5292,
      "Ġecosystem": 5293,
      "MO": 5294,
      "replace": 5295,
      "ows": 5296,
      "ĠHuman": 5297,
      "Ġdrugs": 5298,
      "ĠAng": 5299,
      "Ġturned": 5300,
      "remove": 5301,
      "real": 5302,
      "Ġpresented": 5303,
      "ĠWestern": 5304,
      "Ġjoint": 5305,
      "Ġelim": 5306,
      "isf": 5307,
      "Ġfaced": 5308,
      "Ġinstitutions": 5309,
      "ĠBook": 5310,
      ".'": 5311,
      "ĠMake": 5312,
      "ĠWashington": 5313,
      "ĠBar": 5314,
      "clusive": 5315,
      "Ġpush": 5316,
      "osen": 5317,
      "Ġcarefully": 5318,
      "Ġsmooth": 5319,
      "Char": 5320,
      "ĠUsing": 5321,
      "ondon": 5322,
      "icks": 5323,
      "Ġoffic": 5324,
      "Ġsuppl": 5325,
      "author": 5326,
      "Ġbank": 5327,
      "FI": 5328,
      "Fr": 5329,
      "rence": 5330,
      "ĠJewish": 5331,
      "volution": 5332,
      "Ġdirectory": 5333,
      "ĠWork": 5334,
      "Ġprimarily": 5335,
      "Ġchance": 5336,
      "âĢĿ.": 5337,
      "tf": 5338,
      "Ġformer": 5339,
      "ĠSocial": 5340,
      "Ġspaces": 5341,
      "ishing": 5342,
      "Ġexists": 5343,
      "ĠJuly": 5344,
      "Ġliqu": 5345,
      "Ġmouth": 5346,
      "Ġmeeting": 5347,
      "ara": 5348,
      "Ġcommercial": 5349,
      "Ġroles": 5350,
      "Ġparams": 5351,
      "ouncil": 5352,
      "Ġdatabase": 5353,
      "uster": 5354,
      "Ġreturns": 5355,
      "ups": 5356,
      "Ser": 5357,
      "gery": 5358,
      "ĊĠĠĠĠĠĠĠĠĠĠĠĠĠĠĠĠĠĠĠĠĠ": 5359,
      "scope": 5360,
      "road": 5361,
      "amil": 5362,
      "Ġgave": 5363,
      "ogether": 5364,
      "example": 5365,
      "Ġnetworks": 5366,
      "dim": 5367,
      "Ġdiscussion": 5368,
      "Ġfundamental": 5369,
      "vision": 5370,
      "ui": 5371,
      "cls": 5372,
      "PA": 5373,
      "Ġisol": 5374,
      "ĠUp": 5375,
      "ĠTHE": 5376,
      "txt": 5377,
      "Ġindustrial": 5378,
      "CL": 5379,
      "Ġseed": 5380,
      "ĠST": 5381,
      "Ġincreases": 5382,
      "iration": 5383,
      "ĠBr": 5384,
      "Ġpractical": 5385,
      "Ġcomment": 5386,
      "Ġotherwise": 5387,
      "Ġexploration": 5388,
      "pute": 5389,
      "Ġappears": 5390,
      "User": 5391,
      "nam": 5392,
      "ĠPort": 5393,
      "ĠGreen": 5394,
      "Ġbottom": 5395,
      "Ġdied": 5396,
      "ĠCheck": 5397,
      "Ġnarratives": 5398,
      "Read": 5399,
      "ĠSan": 5400,
      "imer": 5401,
      "Ġcontrast": 5402,
      "Ġimpacts": 5403,
      "then": 5404,
      "lication": 5405,
      "Ġinteract": 5406,
      "orge": 5407,
      "Ġreligion": 5408,
      "Ġspiritual": 5409,
      "Ġfailure": 5410,
      "req": 5411,
      "ĠDevelopment": 5412,
      "Ġdisorders": 5413,
      "ĠType": 5414,
      "Ġnumpy": 5415,
      "Ġreports": 5416,
      "Ġheavy": 5417,
      "writ": 5418,
      "iled": 5419,
      "Ġselected": 5420,
      "ĠAugust": 5421,
      "ĠGra": 5422,
      "Ġfailed": 5423,
      "ĠGermany": 5424,
      "ball": 5425,
      "ĠSk": 5426,
      "Ġapproximately": 5427,
      "ario": 5428,
      "cember": 5429,
      "Ġsmart": 5430,
      "Ġplayed": 5431,
      "inger": 5432,
      "Ġadult": 5433,
      "Ġson": 5434,
      "Ġcourt": 5435,
      "Ġtemperatures": 5436,
      "Ġphenomen": 5437,
      "Ġbud": 5438,
      "anted": 5439,
      "Ġglyphs": 5440,
      "Ġtail": 5441,
      "Ġnotes": 5442,
      "Ġsports": 5443,
      "Ġsets": 5444,
      "********": 5445,
      "VID": 5446,
      "Ġmetal": 5447,
      "First": 5448,
      "asion": 5449,
      "oving": 5450,
      "ugin": 5451,
      "unately": 5452,
      "Ġintelligence": 5453,
      "Ġque": 5454,
      "atters": 5455,
      "ĠFrance": 5456,
      "Ġimmediately": 5457,
      "ford": 5458,
      "Ġencourage": 5459,
      "Ġclosely": 5460,
      "Ġ[\"": 5461,
      "Ġcollaboration": 5462,
      "Ref": 5463,
      "Ġ'%": 5464,
      "Ġremoved": 5465,
      "ĠCON": 5466,
      "Ġcombination": 5467,
      "gypt": 5468,
      "icians": 5469,
      "Ġhttps": 5470,
      "Ġshaping": 5471,
      "Ġviolence": 5472,
      "ĠGen": 5473,
      "static": 5474,
      "next": 5475,
      "Â°": 5476,
      "resource": 5477,
      "Ġsuggests": 5478,
      "Ġriver": 5479,
      "Ġexperim": 5480,
      "atin": 5481,
      "ĠRet": 5482,
      "Ġrecommended": 5483,
      "ĠWeb": 5484,
      "graph": 5485,
      "ĠHave": 5486,
      "Ġrelatively": 5487,
      "ĠPal": 5488,
      "true": 5489,
      "Ġeight": 5490,
      "ĠDi": 5491,
      "ĠProf": 5492,
      "Ġdrawing": 5493,
      "yles": 5494,
      "Ġassign": 5495,
      "case": 5496,
      "mail": 5497,
      "ione": 5498,
      "Ġshift": 5499,
      "Ġunits": 5500,
      "dtype": 5501,
      "ĠSol": 5502,
      "Ġmaybe": 5503,
      "Ġlayers": 5504,
      "Ġexperts": 5505,
      "Ġkeeping": 5506,
      "Ġjoin": 5507,
      "select": 5508,
      "Ġju": 5509,
      "Ġvariables": 5510,
      "anish": 5511,
      "ĠUN": 5512,
      "Ġleads": 5513,
      "meta": 5514,
      "Ġspeech": 5515,
      "Ġdrive": 5516,
      "Ġhomes": 5517,
      "('/": 5518,
      "Ġindependent": 5519,
      "uit": 5520,
      "Ġchurch": 5521,
      "Ġoffice": 5522,
      "Ġresponsibility": 5523,
      "ĠCongress": 5524,
      "Ġtour": 5525,
      "Ġstudying": 5526,
      "Ġpotentially": 5527,
      "Ġmulti": 5528,
      "Ġsynt": 5529,
      "Ġgenerated": 5530,
      "Ġdiscrim": 5531,
      "Ġarm": 5532,
      "Ġterrit": 5533,
      "Ġaddressing": 5534,
      "Ġsecure": 5535,
      "alog": 5536,
      "Ġpossess": 5537,
      "ipe": 5538,
      "making": 5539,
      "orig": 5540,
      "ificial": 5541,
      "Ġtissue": 5542,
      "Ġsem": 5543,
      "aises": 5544,
      "Ġintroduced": 5545,
      "Ġcycle": 5546,
      "pha": 5547,
      "ĠCourse": 5548,
      "MS": 5549,
      "eding": 5550,
      "Ġbuildings": 5551,
      "Man": 5552,
      "pk": 5553,
      "ĠFeb": 5554,
      "overty": 5555,
      "Ġaccurate": 5556,
      "Ġdra": 5557,
      "Ġpret": 5558,
      "Ġpoly": 5559,
      "Ġrepresentation": 5560,
      "Ġinnovative": 5561,
      "Ġfert": 5562,
      "unction": 5563,
      "Ġhappened": 5564,
      "Ġdatetime": 5565,
      "iling": 5566,
      "Ġsand": 5567,
      "Ġmarg": 5568,
      "ĠProject": 5569,
      "ITY": 5570,
      "Ġpal": 5571,
      "Ġproperly": 5572,
      "Ġviews": 5573,
      "stract": 5574,
      "Se": 5575,
      "network": 5576,
      "Ġselection": 5577,
      "rated": 5578,
      "ĠWhy": 5579,
      "ART": 5580,
      "Ġjobs": 5581,
      "itness": 5582,
      "Ġfiction": 5583,
      "ĠDNA": 5584,
      "Ġresol": 5585,
      "driver": 5586,
      "ĠPlan": 5587,
      "Lay": 5588,
      "ifications": 5589,
      "Ġnutrition": 5590,
      "ĠMr": 5591,
      "ĠHouse": 5592,
      "profile": 5593,
      "Ġdepth": 5594,
      "Ġbarri": 5595,
      "Ġperspective": 5596,
      "send": 5597,
      "Ġiron": 5598,
      "othes": 5599,
      "Ġoffering": 5600,
      "Ġbillion": 5601,
      "stop": 5602,
      "emy": 5603,
      "ĠOrgan": 5604,
      "Ġmuscle": 5605,
      "Ġoxy": 5606,
      "Check": 5607,
      "rum": 5608,
      "State": 5609,
      "za": 5610,
      "location": 5611,
      "Ġmonitoring": 5612,
      "rt": 5613,
      "Ġserved": 5614,
      "option": 5615,
      "Ġsequence": 5616,
      "ĊĠĠĠĠĠĠĠĠĠĠĠĠĠĠĠĠĠĠ": 5617,
      "Ġexcell": 5618,
      "aint": 5619,
      "Ġamazing": 5620,
      "Ġexamining": 5621,
      "Ġnuclear": 5622,
      "Ġmeant": 5623,
      "Ġcapable": 5624,
      "čĊĠĠĠĠĠĠĠĠĠĠĠĠĠĠĠ": 5625,
      "ĠAlex": 5626,
      "ĠBecause": 5627,
      "poses": 5628,
      "Ġ),": 5629,
      "Ġorganic": 5630,
      "Ġclick": 5631,
      "Ġsong": 5632,
      "eted": 5633,
      "Ġbed": 5634,
      "oto": 5635,
      "\"))": 5636,
      "ĠDec": 5637,
      "Ġjo": 5638,
      "Ġconducted": 5639,
      "Or": 5640,
      "Ġtiny": 5641,
      "foo": 5642,
      "Ġleaving": 5643,
      "Ġcenturies": 5644,
      "Ġmale": 5645,
      "ĠEgypt": 5646,
      "Ġfamiliar": 5647,
      "Ġintric": 5648,
      "Ġmajority": 5649,
      "Ġfilename": 5650,
      "Ed": 5651,
      "Ġwait": 5652,
      "urity": 5653,
      "ĠSeptember": 5654,
      "SI": 5655,
      "_(": 5656,
      "Ġmere": 5657,
      "ĠMex": 5658,
      "Ġesc": 5659,
      "Ġtreated": 5660,
      "Ġseeds": 5661,
      "ĠMedic": 5662,
      "ĠID": 5663,
      "Ġowners": 5664,
      "Ġstatement": 5665,
      "apers": 5666,
      "Ġpros": 5667,
      "fake": 5668,
      "Ġaid": 5669,
      "Ġdecades": 5670,
      "ĠAustralia": 5671,
      "Ġcast": 5672,
      "Ġcls": 5673,
      "Ġguidelines": 5674,
      "Ġfigures": 5675,
      "ologists": 5676,
      "lower": 5677,
      "ĠEvery": 5678,
      "ĠLondon": 5679,
      "Ġresilience": 5680,
      "Ġconvent": 5681,
      "Ġ'\\": 5682,
      "cons": 5683,
      "Ġtum": 5684,
      "entry": 5685,
      "Ġsick": 5686,
      "Ġround": 5687,
      "script": 5688,
      "Widget": 5689,
      "Su": 5690,
      "dest": 5691,
      "Ġmaximum": 5692,
      "Ġdefinition": 5693,
      "ani": 5694,
      "gal": 5695,
      "inations": 5696,
      "asp": 5697,
      "FF": 5698,
      "icious": 5699,
      "sed": 5700,
      "ida": 5701,
      "ĠMor": 5702,
      "Ġperiods": 5703,
      "Ġagre": 5704,
      "ĠProt": 5705,
      "Ġclearly": 5706,
      "Ġsubjects": 5707,
      "ĠFree": 5708,
      "Ġroll": 5709,
      "PS": 5710,
      "ĠMark": 5711,
      "ocation": 5712,
      "iverse": 5713,
      "vm": 5714,
      "Ġneuro": 5715,
      "Ġtexts": 5716,
      "ĠBra": 5717,
      "ĠThom": 5718,
      "Ġultimately": 5719,
      "ĠSociety": 5720,
      "\"],": 5721,
      "Ġworry": 5722,
      "Ġlinked": 5723,
      "Val": 5724,
      "sor": 5725,
      "Ġroots": 5726,
      "vas": 5727,
      "isher": 5728,
      "ifies": 5729,
      "ARR": 5730,
      "iform": 5731,
      "Ġ..": 5732,
      "ovember": 5733,
      "Ġprepared": 5734,
      "Ġhidden": 5735,
      "ĠBoth": 5736,
      "ĠĠĠĠĠĠĠĠĠĠĠĠĠĠĠĠĠĠĠĠĠĠĠĠĠĠĠĠĠĠĠĠ": 5737,
      "Ġstraight": 5738,
      "Ġtouch": 5739,
      "Ġwidely": 5740,
      "Ġplastic": 5741,
      "Ġupper": 5742,
      "enth": 5743,
      "Ġabsol": 5744,
      "Ġsou": 5745,
      "itors": 5746,
      "ĠBel": 5747,
      "cknow": 5748,
      "rich": 5749,
      "ĠHy": 5750,
      "Ġsamples": 5751,
      "Ġconsult": 5752,
      "Ġinflam": 5753,
      "Ġpun": 5754,
      "ĠOut": 5755,
      "ĠIr": 5756,
      "job": 5757,
      "aker": 5758,
      "Ġingredients": 5759,
      "eli": 5760,
      "except": 5761,
      "ĠANY": 5762,
      "Ġmist": 5763,
      "Ġ\"%": 5764,
      "ĊĠĠĠĠĠĠĠĠĠĠĠĠĠĠĠĠĠ": 5765,
      "ĠVol": 5766,
      "vr": 5767,
      "Ġcoding": 5768,
      "Ġchronic": 5769,
      "Ġassessment": 5770,
      "New": 5771,
      "ĠPhil": 5772,
      "crete": 5773,
      "ĠCD": 5774,
      "tenance": 5775,
      "ĠJanuary": 5776,
      "ĠFood": 5777,
      "ĊĊĉ": 5778,
      "Ġremind": 5779,
      "Ġcreates": 5780,
      "Ġfarmers": 5781,
      "username": 5782,
      "Ġclaim": 5783,
      "Ġvot": 5784,
      "ĊĠĠĠĠĠĠĠĠĠĠĠĠĠĠĠĠĠĠĠĠĠĠĠĠĠĠĠĠ": 5785,
      "Ġconservation": 5786,
      "Ġgrass": 5787,
      "Ġpark": 5788,
      "Ġhyper": 5789,
      "Ġrecognize": 5790,
      "Class": 5791,
      "edia": 5792,
      "west": 5793,
      "Ã¡": 5794,
      "ĠCreate": 5795,
      "Ġhighest": 5796,
      "Ġlinks": 5797,
      "ĠLife": 5798,
      "container": 5799,
      "Ġdefine": 5800,
      "Ġperformed": 5801,
      "Ġsurvey": 5802,
      "Ġresponses": 5803,
      "Node": 5804,
      "dule": 5805,
      "tests": 5806,
      "Ġoptim": 5807,
      "Ġcollege": 5808,
      "pload": 5809,
      "fit": 5810,
      "Ġimproving": 5811,
      "ĠLin": 5812,
      "ĊĠĠĠĠĠĠĠĠĠĠĠĠĠĠĠĠĠĠĠĠ": 5813,
      "ĠInc": 5814,
      "Ġmoved": 5815,
      "Ġchannel": 5816,
      "Ġhunt": 5817,
      "Ġcontainer": 5818,
      "alysis": 5819,
      "Ġhear": 5820,
      "ĠHT": 5821,
      "Ġcarried": 5822,
      "!!": 5823,
      "Ġfold": 5824,
      "Ġedge": 5825,
      "ĠKeep": 5826,
      "Ġdu": 5827,
      "metadata": 5828,
      "Ġcircumst": 5829,
      "Def": 5830,
      "mt": 5831,
      "Ġhuge": 5832,
      "Ġperm": 5833,
      "nodes": 5834,
      "Ġunderlying": 5835,
      "Ġexplained": 5836,
      "Ġcareer": 5837,
      "ny": 5838,
      "ĠGr": 5839,
      "ava": 5840,
      "Ġmotor": 5841,
      "ses": 5842,
      "Ġcareful": 5843,
      "ĠSam": 5844,
      "à¥": 5845,
      "Ġear": 5846,
      "ĠOctober": 5847,
      "ruary": 5848,
      "Ġprev": 5849,
      "othing": 5850,
      "Ġelectricity": 5851,
      "]]": 5852,
      "ato": 5853,
      "sys": 5854,
      "Ġphase": 5855,
      "ĠThink": 5856,
      "Ġtemplate": 5857,
      "pc": 5858,
      "Ġutils": 5859,
      "err": 5860,
      "pping": 5861,
      "Ġwealth": 5862,
      "Ġstored": 5863,
      "ĠArch": 5864,
      "Conclusion": 5865,
      "Ġcharge": 5866,
      "De": 5867,
      "Ġtrib": 5868,
      "Ġdistrict": 5869,
      "Ġcra": 5870,
      "lers": 5871,
      "Ġdownload": 5872,
      "la": 5873,
      "oma": 5874,
      "umps": 5875,
      "Ġvoice": 5876,
      "'].": 5877,
      ":`": 5878,
      "zy": 5879,
      "Info": 5880,
      "Ġinformed": 5881,
      "Ġoxygen": 5882,
      "Ġwall": 5883,
      "Ġtreatments": 5884,
      "Ġstock": 5885,
      "ĠCounty": 5886,
      "while": 5887,
      "Ġradio": 5888,
      "Act": 5889,
      "Ġtruly": 5890,
      "Ġlies": 5891,
      "ĠAir": 5892,
      "Hand": 5893,
      "Ġarrang": 5894,
      "ulum": 5895,
      "Ġyouth": 5896,
      "ĠForm": 5897,
      "ĠSoftware": 5898,
      "she": 5899,
      "ture": 5900,
      "Ġocean": 5901,
      "Ġpurposes": 5902,
      "FT": 5903,
      "Ġplatforms": 5904,
      "Ġfix": 5905,
      "onal": 5906,
      "ologist": 5907,
      "nic": 5908,
      "Ġflood": 5909,
      "Ġbehaviors": 5910,
      "DS": 5911,
      "amm": 5912,
      "Ġinnovation": 5913,
      "OL": 5914,
      "lements": 5915,
      "Ġraised": 5916,
      "Request": 5917,
      "Ġfruits": 5918,
      "Ġpreviously": 5919,
      "Ġscreen": 5920,
      "store": 5921,
      "ĠCour": 5922,
      "ĠDecember": 5923,
      "oves": 5924,
      "Ġbreast": 5925,
      "Ġorigin": 5926,
      "\">": 5927,
      "Ġletter": 5928,
      "Ġdedicated": 5929,
      "bt": 5930,
      "Ġloved": 5931,
      "Ġrul": 5932,
      "Ġfilm": 5933,
      "Ġboundaries": 5934,
      "etry": 5935,
      "Ġconsid": 5936,
      "Ġdeliver": 5937,
      "ĊĠĠĠĠĠĠĠĠĠĠĠĠĠĠĠĠĠĠĠĠĠĠĠĠĠĠĠĠĠĠĠĠĠĠĠ": 5938,
      "Ġpersist": 5939,
      "Ġincorporating": 5940,
      "oyal": 5941,
      "Ġtal": 5942,
      "oices": 5943,
      "Ġknew": 5944,
      "common": 5945,
      "ĠDirect": 5946,
      "Ġgovernments": 5947,
      "EC": 5948,
      "herent": 5949,
      "Ġcovered": 5950,
      "Ġdetermined": 5951,
      "Ġfrequency": 5952,
      "ĠAssociation": 5953,
      "gest": 5954,
      "ĠBas": 5955,
      "Ġguidance": 5956,
      "Ġcooking": 5957,
      "Ġsquare": 5958,
      "Ġextremely": 5959,
      "ĠMich": 5960,
      "Image": 5961,
      "tx": 5962,
      "Ġthick": 5963,
      "They": 5964,
      "Ġcombined": 5965,
      "aud": 5966,
      "mult": 5967,
      "Ġensures": 5968,
      "Ġminor": 5969,
      "prefix": 5970,
      "OS": 5971,
      "Ġfoster": 5972,
      "mem": 5973,
      "Ġarticles": 5974,
      "bas": 5975,
      "Ġwaters": 5976,
      "cat": 5977,
      "Ġindigenous": 5978,
      "Ġdepression": 5979,
      "press": 5980,
      "Ġproposed": 5981,
      "Ġfaster": 5982,
      "Ġagreed": 5983,
      "hi": 5984,
      "Ġnodes": 5985,
      "produ": 5986,
      "Ġrein": 5987,
      "ĊĠĠĠĠĠĠĠĠĠĠĠĠĠĠĠĠĠĠĠĠĠĠĠĠĠ": 5988,
      "edge": 5989,
      "Ġseven": 5990,
      "Ġsupporting": 5991,
      "Ġvert": 5992,
      "asure": 5993,
      "ĠFore": 5994,
      "Ġapart": 5995,
      "tee": 5996,
      "Ġinteractions": 5997,
      "Ġshell": 5998,
      "Before": 5999,
      "Reg": 6000,
      "Ġdestroy": 6001,
      "Ġprepare": 6002,
      "volume": 6003,
      "Ġreached": 6004,
      "ĠMal": 6005,
      "Ġaxis": 6006,
      "Ġnations": 6007,
      "amily": 6008,
      "Ġlett": 6009,
      "Ġantib": 6010,
      "Ġimplementation": 6011,
      "Att": 6012,
      "Ġlesson": 6013,
      "Ġinterested": 6014,
      "roph": 6015,
      "Ġgoods": 6016,
      "points": 6017,
      "Ġcognitive": 6018,
      "Ġknows": 6019,
      "Ġparticles": 6020,
      "datetime": 6021,
      "bi": 6022,
      "Ġconv": 6023,
      "Ġbaby": 6024,
      "Ġâ": 6025,
      "ĠSuch": 6026,
      "Ġremote": 6027,
      "ĠService": 6028,
      "ĠStudents": 6029,
      "More": 6030,
      "uni": 6031,
      "ĠCommon": 6032,
      "Ġcris": 6033,
      "Ġhousehold": 6034,
      "Ġcampaign": 6035,
      "Ġdangerous": 6036,
      "cel": 6037,
      "Ġinfrast": 6038,
      "ĠSimilarly": 6039,
      "Ġdescribe": 6040,
      "Ġbroader": 6041,
      "ya": 6042,
      "Ġdiscussions": 6043,
      "ĠWIT": 6044,
      "Ġsubstant": 6045,
      "layer": 6046,
      "ellect": 6047,
      "apes": 6048,
      "================================": 6049,
      "Ġdesired": 6050,
      "Ġcandid": 6051,
      "Ġlamb": 6052,
      "ĠTime": 6053,
      "ĠVir": 6054,
      "Ġsaying": 6055,
      "Ab": 6056,
      "zone": 6057,
      "Ġfalse": 6058,
      "Ġ>=": 6059,
      "Ġatmosphere": 6060,
      "cher": 6061,
      "ĠClass": 6062,
      "Ġstar": 6063,
      "argument": 6064,
      "Ġbatter": 6065,
      "Ġearn": 6066,
      "ĠAS": 6067,
      "Ġcreativity": 6068,
      "Ġreferred": 6069,
      "NAME": 6070,
      "Ġaimed": 6071,
      "Ġsplit": 6072,
      "Ġfill": 6073,
      "DF": 6074,
      "Ġlooked": 6075,
      "olean": 6076,
      "ASA": 6077,
      "Ġdocuments": 6078,
      "Ġtrou": 6079,
      "Ġalign": 6080,
      "Ġmeat": 6081,
      "Ġprotocol": 6082,
      "Ġshapes": 6083,
      "ATION": 6084,
      "Ġdegrees": 6085,
      "Ġskill": 6086,
      "token": 6087,
      "hem": 6088,
      "arrow": 6089,
      "Ġserves": 6090,
      "Ġcredit": 6091,
      "\"):": 6092,
      "Ġnor": 6093,
      "ĠBudd": 6094,
      "iant": 6095,
      "Ġamounts": 6096,
      "uing": 6097,
      "lege": 6098,
      "Ġconsc": 6099,
      "Ġcloser": 6100,
      "allel": 6101,
      "Ġvess": 6102,
      "Trans": 6103,
      "Ġrender": 6104,
      "Ġhit": 6105,
      "Ġauthent": 6106,
      "Ġlatest": 6107,
      "Rec": 6108,
      "Ġacknow": 6109,
      "free": 6110,
      "Ġparties": 6111,
      "Ġdetail": 6112,
      "orough": 6113,
      "Ġtalking": 6114,
      "Ġhorm": 6115,
      "ĠPract": 6116,
      "Ġformation": 6117,
      "Ġemployees": 6118,
      "lamb": 6119,
      "Ġsatisf": 6120,
      "omb": 6121,
      "Ġadvantage": 6122,
      "ceived": 6123,
      "Ġvaccine": 6124,
      "Le": 6125,
      "Dict": 6126,
      "inf": 6127,
      "access": 6128,
      "Ġgrand": 6129,
      "record": 6130,
      "Ġfacts": 6131,
      "Ġlooks": 6132,
      "Ġcompleted": 6133,
      "Ġchemicals": 6134,
      "ĠAsia": 6135,
      "Ġflowers": 6136,
      "Our": 6137,
      "rency": 6138,
      "Ġconsistent": 6139,
      "Ġerr": 6140,
      "Ġpip": 6141,
      "Ġmel": 6142,
      "Ġ{\"": 6143,
      "Ġpresident": 6144,
      "pool": 6145,
      "isation": 6146,
      "Ġsensitive": 6147,
      "ĠHel": 6148,
      "Ġreleased": 6149,
      "iosity": 6150,
      "UP": 6151,
      "Ġcomputers": 6152,
      "Ġprocedures": 6153,
      "https": 6154,
      "ancer": 6155,
      "Bob": 6156,
      "Ġspent": 6157,
      "Ġregional": 6158,
      "Ġmanufacture": 6159,
      "IB": 6160,
      "Ġspot": 6161,
      "Ġpollution": 6162,
      "acts": 6163,
      "score": 6164,
      "Ġparam": 6165,
      "stack": 6166,
      "Ġflat": 6167,
      "idx": 6168,
      "!\"": 6169,
      "Ġwasn": 6170,
      "ourage": 6171,
      "Ġple": 6172,
      "Line": 6173,
      "Size": 6174,
      "Ġrenew": 6175,
      "ĠTem": 6176,
      "ĠDel": 6177,
      "Ġspring": 6178,
      "Ġmanaging": 6179,
      "Ġplease": 6180,
      "Ġreaction": 6181,
      "Ġrevolution": 6182,
      "Ġtf": 6183,
      "Ġoffered": 6184,
      "Ġrecip": 6185,
      "Ġmoral": 6186,
      "lambda": 6187,
      "person": 6188,
      "uzz": 6189,
      "Ġengagement": 6190,
      "Ġdynamics": 6191,
      "Ġmissing": 6192,
      "ĠDist": 6193,
      "ĠOff": 6194,
      "oose": 6195,
      "Ġpand": 6196,
      "aming": 6197,
      "Ġchain": 6198,
      "Ġtechnical": 6199,
      "ĠDet": 6200,
      "Ġreduction": 6201,
      "ĠCare": 6202,
      "Ġempty": 6203,
      "ĠOpen": 6204,
      "Ġeggs": 6205,
      "ĠChildren": 6206,
      "rieved": 6207,
      "plicated": 6208,
      "Ġmac": 6209,
      "Ġblog": 6210,
      "Ġvolunt": 6211,
      "eless": 6212,
      "Ġcharg": 6213,
      "Ġkid": 6214,
      "Ġslightly": 6215,
      "src": 6216,
      "exists": 6217,
      "That": 6218,
      "Ġshowing": 6219,
      "Ġancest": 6220,
      "pred": 6221,
      "Ġmotion": 6222,
      "erving": 6223,
      "Ġintended": 6224,
      "Ġfoundation": 6225,
      "cers": 6226,
      "onic": 6227,
      "logger": 6228,
      "conomic": 6229,
      "Ġprompt": 6230,
      "Rem": 6231,
      "itter": 6232,
      "PR": 6233,
      "Ġdiscovery": 6234,
      "Ġcircumstances": 6235,
      "Ġharmful": 6236,
      "Ġfine": 6237,
      "riage": 6238,
      "ĠWhe": 6239,
      "lig": 6240,
      "QU": 6241,
      "ĠUK": 6242,
      "den": 6243,
      "otic": 6244,
      "ĠUser": 6245,
      "mean": 6246,
      "Be": 6247,
      "Ġfab": 6248,
      "Ġnavigate": 6249,
      "Out": 6250,
      "Ġtuple": 6251,
      "Ġuid": 6252,
      "Ġsolve": 6253,
      "istant": 6254,
      "ĠPhys": 6255,
      "ulating": 6256,
      "views": 6257,
      "Ġappreciation": 6258,
      "null": 6259,
      "ĠSpanish": 6260,
      "Ġproteins": 6261,
      "Gener": 6262,
      "ste": 6263,
      "Ġpoverty": 6264,
      "erent": 6265,
      "Ġdiscipl": 6266,
      "Ġinstrument": 6267,
      "appy": 6268,
      "ĠCentral": 6269,
      "ĠNovember": 6270,
      "Ġcmd": 6271,
      "Ġideal": 6272,
      "Ġincredible": 6273,
      "Ġinfrastructure": 6274,
      "Ġicon": 6275,
      "ARRANT": 6276,
      "ĠDem": 6277,
      ")):": 6278,
      "GB": 6279,
      "Ġsuitable": 6280,
      "Ġenv": 6281,
      "ĠRights": 6282,
      "Ġliquid": 6283,
      "king": 6284,
      "Ġgenes": 6285,
      "ĠWARRANT": 6286,
      "ditional": 6287,
      "ĠManagement": 6288,
      "Ġvent": 6289,
      "non": 6290,
      "Ġparameter": 6291,
      "Ġmoist": 6292,
      "Aut": 6293,
      "header": 6294,
      "Ġbeauty": 6295,
      "Ġthin": 6296,
      "ĠMat": 6297,
      "ander": 6298,
      "Ġalt": 6299,
      "Ġregulations": 6300,
      "ĠProv": 6301,
      "Ġrapidly": 6302,
      "manager": 6303,
      "Ġdriving": 6304,
      "ĠAut": 6305,
      "Ġthr": 6306,
      "ĠCivil": 6307,
      "Ġremained": 6308,
      "ĠGoogle": 6309,
      "ocab": 6310,
      "pare": 6311,
      "world": 6312,
      "Comm": 6313,
      "Can": 6314,
      "Ġbone": 6315,
      "ĠAD": 6316,
      "Ġmedium": 6317,
      "rowser": 6318,
      "assertR": 6319,
      "]))": 6320,
      "Ġfeedback": 6321,
      "ĠGreek": 6322,
      "well": 6323,
      "Ġnutrients": 6324,
      "ĠAND": 6325,
      "Ġleadership": 6326,
      "(*": 6327,
      "Ġsell": 6328,
      "ULT": 6329,
      "ycl": 6330,
      "ĠSch": 6331,
      "annels": 6332,
      "ĠWilliam": 6333,
      "Ġwhom": 6334,
      "Ġexistence": 6335,
      "Ġvehicles": 6336,
      "blank": 6337,
      "Ġcapture": 6338,
      "Ġfro": 6339,
      "astern": 6340,
      "Ġdigest": 6341,
      "Ġkinds": 6342,
      "Ġlimitations": 6343,
      "Ġradiation": 6344,
      "čĊč": 6345,
      "IO": 6346,
      "Ġtrends": 6347,
      "wood": 6348,
      "ĠInternet": 6349,
      "Ġsnow": 6350,
      "racy": 6351,
      "ĠIP": 6352,
      "Ġpursu": 6353,
      "ĠImport": 6354,
      "Ġera": 6355,
      "ÃŃ": 6356,
      "Ġpul": 6357,
      "Ġimplications": 6358,
      "Ġinjury": 6359,
      "Ġcatch": 6360,
      "Ġfirm": 6361,
      "Ġmatters": 6362,
      "operation": 6363,
      "Ġinteraction": 6364,
      "ago": 6365,
      "ĠCle": 6366,
      "Ġoperating": 6367,
      "Ġcomprehensive": 6368,
      "ĠFebruary": 6369,
      "Ġbrief": 6370,
      "ĠPost": 6371,
      "Ġmatrix": 6372,
      "Ġdogs": 6373,
      "sa": 6374,
      "Ġexchange": 6375,
      "Ġpictures": 6376,
      "Ġextreme": 6377,
      "Ġsocietal": 6378,
      "Ġusage": 6379,
      "------------": 6380,
      "ĠStep": 6381,
      "uthor": 6382,
      "Ġconfiguration": 6383,
      "Ġmechanisms": 6384,
      "Ġvehicle": 6385,
      "=(": 6386,
      "Ġexposed": 6387,
      "Ġnull": 6388,
      "Ġchosen": 6389,
      "ĠJews": 6390,
      "ĠMount": 6391,
      "Ġsubsequ": 6392,
      "Ġspend": 6393,
      "Ġfollows": 6394,
      "Response": 6395,
      "onents": 6396,
      "Ġobst": 6397,
      "Ġcommunicate": 6398,
      "Ġpolitics": 6399,
      "ĠJames": 6400,
      "Ġmillions": 6401,
      "which": 6402,
      "ĠSometimes": 6403,
      "Ġempathy": 6404,
      "system": 6405,
      "Ġbird": 6406,
      "sv": 6407,
      "ĠIdent": 6408,
      "Ġlocations": 6409,
      "never": 6410,
      "Ġregularly": 6411,
      "Ġhospital": 6412,
      "Ġsurgery": 6413,
      "Ġpool": 6414,
      "Ġmit": 6415,
      "ĠArab": 6416,
      "ndrome": 6417,
      "ĠStand": 6418,
      "tmp": 6419,
      "Ġexcellent": 6420,
      "MP": 6421,
      "aph": 6422,
      "Ġremark": 6423,
      "Ġindicate": 6424,
      "Tra": 6425,
      "train": 6426,
      "ĠMary": 6427,
      "ĠGeorge": 6428,
      "Ġsuccessfully": 6429,
      "Ġethical": 6430,
      "stood": 6431,
      "ĠBen": 6432,
      "Ġarchitecture": 6433,
      "diff": 6434,
      "Ġnerv": 6435,
      "Ġestimated": 6436,
      "Ent": 6437,
      "Ġkept": 6438,
      "ĠRepublic": 6439,
      "reet": 6440,
      "axis": 6441,
      "Ġnoted": 6442,
      "Ġcutting": 6443,
      "Ġtoxic": 6444,
      "parser": 6445,
      "Ġphone": 6446,
      "admin": 6447,
      "ĠDavid": 6448,
      "gent": 6449,
      "Ġconfidence": 6450,
      "ipping": 6451,
      "IST": 6452,
      "Ġmigr": 6453,
      "Ġwear": 6454,
      "Ġcorpor": 6455,
      "Ġpython": 6456,
      "Date": 6457,
      "td": 6458,
      "ĠTwo": 6459,
      "Ġenables": 6460,
      "Ġliver": 6461,
      "Ġdrop": 6462,
      "ĠPaul": 6463,
      "ears": 6464,
      "ĊĠĠĠĠĠĠĠĠĠĠ": 6465,
      "Ġmanip": 6466,
      "Ġmyth": 6467,
      "URL": 6468,
      "Ġstrengthen": 6469,
      "allow": 6470,
      "Ġcoal": 6471,
      "']['": 6472,
      "inant": 6473,
      "Ġshar": 6474,
      "Ġcalls": 6475,
      "Ġ'.": 6476,
      "RL": 6477,
      "Ġinner": 6478,
      "rolog": 6479,
      "connection": 6480,
      "words": 6481,
      "icism": 6482,
      "abling": 6483,
      "Ġauthority": 6484,
      "Ġratio": 6485,
      "Do": 6486,
      "Ġfixed": 6487,
      "Ġhabits": 6488,
      "Ġ'-": 6489,
      "othe": 6490,
      "ultane": 6491,
      "band": 6492,
      "rays": 6493,
      "Ġweap": 6494,
      "ĠSecond": 6495,
      "using": 6496,
      "ĠMiddle": 6497,
      "lick": 6498,
      "Ġdiscussed": 6499,
      "Ġexciting": 6500,
      "KE": 6501,
      "Ġyellow": 6502,
      "ulf": 6503,
      "Ġtraffic": 6504,
      "ĠWho": 6505,
      "grad": 6506,
      "tree": 6507,
      "ĠSar": 6508,
      "Ġaffects": 6509,
      "`,": 6510,
      ".\")": 6511,
      "Ġtit": 6512,
      "Pol": 6513,
      "rive": 6514,
      "Ġclim": 6515,
      "Ġscore": 6516,
      "Ġopening": 6517,
      ",'": 6518,
      "sort": 6519,
      "ĠPri": 6520,
      "Ġmachines": 6521,
      "CharField": 6522,
      "ĠExper": 6523,
      "Ġimmun": 6524,
      "Instance": 6525,
      "Ġadvice": 6526,
      "Ġstorm": 6527,
      "Ġacts": 6528,
      "Ġelectrical": 6529,
      "fail": 6530,
      "xid": 6531,
      "orous": 6532,
      "ĠCollege": 6533,
      "Ġtips": 6534,
      "Ġhour": 6535,
      "Ġrecovery": 6536,
      "Ġheritage": 6537,
      "support": 6538,
      "Ġap": 6539,
      "Ġwarn": 6540,
      "ĠTechnology": 6541,
      "]),": 6542,
      "Ġannual": 6543,
      "itutional": 6544,
      "Ġstruggle": 6545,
      "disk": 6546,
      "Ġattacks": 6547,
      "Ġdir": 6548,
      "Ġanswers": 6549,
      "rat": 6550,
      "Ġtensor": 6551,
      "ĠCouncil": 6552,
      "ĊĠĠ": 6553,
      "ĊĠĠĠĠĠĠĠĠĠĠĠĠĠĠĠĠĠĠĠĠĠĠ": 6554,
      "Ġlambda": 6555,
      "TY": 6556,
      "ĠEmp": 6557,
      "Ġdisapp": 6558,
      "Ġmaintenance": 6559,
      "Ġcollective": 6560,
      "dden": 6561,
      "Ġinfections": 6562,
      "(-": 6563,
      "ĠMicro": 6564,
      "flags": 6565,
      "Ġfrag": 6566,
      "Ġhaz": 6567,
      "ĠâĢ¦": 6568,
      "umes": 6569,
      "Ġhelpful": 6570,
      "riculum": 6571,
      "organ": 6572,
      "riend": 6573,
      "tical": 6574,
      "Ġinternet": 6575,
      "Path": 6576,
      "ĠVis": 6577,
      "Ġsimpl": 6578,
      "âĢĿ,": 6579,
      "Ġzero": 6580,
      "ometry": 6581,
      "that": 6582,
      "prov": 6583,
      "Ġafford": 6584,
      "Ġstronger": 6585,
      "Ġmask": 6586,
      "Ġvibr": 6587,
      "ĠInformation": 6588,
      "Ġband": 6589,
      "Ġabilities": 6590,
      "Ġtransportation": 6591,
      "ĠBuild": 6592,
      "Ġhappy": 6593,
      "indows": 6594,
      "Ġgained": 6595,
      "essions": 6596,
      "ĠFOR": 6597,
      "Ġdepends": 6598,
      "Ġanalyze": 6599,
      "dr": 6600,
      "Ġfra": 6601,
      "Ġoral": 6602,
      "fortunately": 6603,
      "ĠCath": 6604,
      "Ġdecor": 6605,
      "Ġpp": 6606,
      "Ġgod": 6607,
      "Ġminimum": 6608,
      "Ġwisdom": 6609,
      "Ġfoss": 6610,
      "ĠQue": 6611,
      "Ġcategory": 6612,
      "Ġalongside": 6613,
      "Ġasking": 6614,
      "TO": 6615,
      "ialize": 6616,
      "Ġleaf": 6617,
      "ĠAny": 6618,
      "Ġemerging": 6619,
      "uous": 6620,
      "Ġassistance": 6621,
      "Ġremaining": 6622,
      "ĠConsider": 6623,
      "Ġletters": 6624,
      "Ġknowing": 6625,
      "aturally": 6626,
      "ĠFin": 6627,
      "Ġkill": 6628,
      "omic": 6629,
      "Ġinstances": 6630,
      "Ġnearby": 6631,
      "Ġintellect": 6632,
      "break": 6633,
      "Ġsupports": 6634,
      "Ġframework": 6635,
      "Ġsudden": 6636,
      "Ġwriter": 6637,
      "XXXX": 6638,
      "Ġbattle": 6639,
      "char": 6640,
      "Ġinstruction": 6641,
      "Ġneighbor": 6642,
      "Ġcars": 6643,
      "Run": 6644,
      "onent": 6645,
      "ĠLord": 6646,
      "Ġrelax": 6647,
      "Ġappearance": 6648,
      "Ġsalt": 6649,
      "Ġsector": 6650,
      "Ġlisten": 6651,
      "Ġinvestment": 6652,
      "----------------------------------------------------------------": 6653,
      "raints": 6654,
      "Ġrig": 6655,
      "Ġstarts": 6656,
      "Ġdouble": 6657,
      "Box": 6658,
      "ĠLeg": 6659,
      "'''": 6660,
      "According": 6661,
      "esson": 6662,
      "Ġcloud": 6663,
      "Ġfort": 6664,
      "ĠSpace": 6665,
      "ĠGovernment": 6666,
      "rations": 6667,
      "reshold": 6668,
      "ĠProfess": 6669,
      "ampl": 6670,
      "ĠAnother": 6671,
      "Ġtried": 6672,
      "ĠCourt": 6673,
      "Ġstages": 6674,
      "ĠMuseum": 6675,
      "Ġamb": 6676,
      "assertRaises": 6677,
      "Ġsufficient": 6678,
      "Alice": 6679,
      "ĠDisc": 6680,
      "Ġconsists": 6681,
      "Ġmostly": 6682,
      "Ġcere": 6683,
      "roke": 6684,
      "Ġsuggested": 6685,
      "Ġhoriz": 6686,
      "Ġdecide": 6687,
      "Ġcustomers": 6688,
      "Ġreverse": 6689,
      "ota": 6690,
      "Ġwidth": 6691,
      "hus": 6692,
      "Ġfle": 6693,
      "ansion": 6694,
      "Ġdoctors": 6695,
      "Ġdynamic": 6696,
      "ĠControl": 6697,
      "holders": 6698,
      "Ġsurvival": 6699,
      "\"])": 6700,
      "callback": 6701,
      "ĠCOVID": 6702,
      "Ġinstructions": 6703,
      "ky": 6704,
      "ĠTex": 6705,
      "Ġvs": 6706,
      "Ġdiagnosis": 6707,
      "Dis": 6708,
      "Ġsubt": 6709,
      "ĠFe": 6710,
      "ĠRich": 6711,
      "Ġtemp": 6712,
      "Ġoccurred": 6713,
      "icens": 6714,
      "offset": 6715,
      "effect": 6716,
      "Ġforced": 6717,
      "what": 6718,
      "inity": 6719,
      "ifts": 6720,
      "ĠLike": 6721,
      "Ġdoll": 6722,
      "Ġfacilities": 6723,
      "Item": 6724,
      "CS": 6725,
      "orrow": 6726,
      "Ġunknown": 6727,
      "Ġkeys": 6728,
      "Ġinsurance": 6729,
      "Ġsweet": 6730,
      "ĠJapanese": 6731,
      "erior": 6732,
      "esc": 6733,
      "Ġpray": 6734,
      "Ġdro": 6735,
      "ĠSec": 6736,
      "Ġdictionary": 6737,
      "Ġprices": 6738,
      "ĠDesign": 6739,
      "Ġdiscrimination": 6740,
      "ernel": 6741,
      "Ġinspired": 6742,
      "Ġpretty": 6743,
      "Over": 6744,
      "aughter": 6745,
      "Ġbegins": 6746,
      "arant": 6747,
      "ĠMet": 6748,
      "ĠMem": 6749,
      "fulness": 6750,
      "ĠEnergy": 6751,
      "ras": 6752,
      "ounced": 6753,
      "ĠGroup": 6754,
      "Ġappoint": 6755,
      "Ġmainly": 6756,
      "Ġintervention": 6757,
      "Through": 6758,
      "clean": 6759,
      "Ġsin": 6760,
      "Ġabuse": 6761,
      "Ġmuscles": 6762,
      "Ġaccuracy": 6763,
      "ĠLearning": 6764,
      "Ġpowers": 6765,
      "fn": 6766,
      "Ġextent": 6767,
      "Ġrealized": 6768,
      "Ġaccompl": 6769,
      "oom": 6770,
      "cla": 6771,
      "late": 6772,
      "Ġwitness": 6773,
      "Ġship": 6774,
      "full": 6775,
      "Ġcontrolled": 6776,
      "utf": 6777,
      "acific": 6778,
      "Ġimper": 6779,
      "Ġtaught": 6780,
      "results": 6781,
      "Ġneut": 6782,
      "Ġfluid": 6783,
      "Ġloop": 6784,
      "Ġdram": 6785,
      "bb": 6786,
      "Ġmixed": 6787,
      "Ġcuriosity": 6788,
      "]['": 6789,
      "Ġfellow": 6790,
      "Ġment": 6791,
      "ĠDespite": 6792,
      "total": 6793,
      "Ġelev": 6794,
      "III": 6795,
      "Ġhabitat": 6796,
      "ĠStudies": 6797,
      "Ġderived": 6798,
      "Ġgar": 6799,
      "ads": 6800,
      "ĠCreat": 6801,
      "Ġsignals": 6802,
      "ĠWhite": 6803,
      "Ġmonitor": 6804,
      "CP": 6805,
      "Ġgrown": 6806,
      "ĠRussian": 6807,
      "ailability": 6808,
      "ums": 6809,
      "Ġagricultural": 6810,
      "Ġadventure": 6811,
      "Ġdie": 6812,
      "left": 6813,
      "Ġperman": 6814,
      "estamp": 6815,
      "itudes": 6816,
      "Once": 6817,
      "uation": 6818,
      "Ġexplan": 6819,
      "uuid": 6820,
      "Ġahead": 6821,
      "berg": 6822,
      "Ġspeaking": 6823,
      "vity": 6824,
      "Ġfacing": 6825,
      "Ġimplied": 6826,
      "Ġleader": 6827,
      "Ġmeaningful": 6828,
      "Introduction": 6829,
      "čĊčĊĠĠĠ": 6830,
      "Ġtransition": 6831,
      "ĠIntroduction": 6832,
      "Ġmanaged": 6833,
      "ĠElect": 6834,
      "Ġdeeply": 6835,
      "ĊĠĠĠĠĠĠĠĠĠĠĠĠĠĠĠĠĠĠĠĠĠĠĠĠĠĠĠĠĠ": 6836,
      "Ġaircraft": 6837,
      "Ġoffset": 6838,
      "Ġprocedure": 6839,
      "Ġther": 6840,
      "itory": 6841,
      "Ġfant": 6842,
      "Ġstick": 6843,
      "atever": 6844,
      "Ġscope": 6845,
      "ĠExamples": 6846,
      "Ġmarked": 6847,
      "Ġwalking": 6848,
      "Ġlots": 6849,
      "ĠMain": 6850,
      "Ġtrace": 6851,
      "Ġcouldn": 6852,
      "Ġpassion": 6853,
      "nel": 6854,
      "Ã³": 6855,
      "Ġcommunic": 6856,
      "Ġbright": 6857,
      "oor": 6858,
      "ĠNote": 6859,
      "mic": 6860,
      "ummy": 6861,
      "Ġclosed": 6862,
      "ribution": 6863,
      "ĠÐ": 6864,
      "Ġsides": 6865,
      "'d": 6866,
      "ĠSun": 6867,
      "help": 6868,
      "Ġoptimal": 6869,
      "under": 6870,
      "Ġscene": 6871,
      "Ġdrinking": 6872,
      "nc": 6873,
      "ĊĊĊĠĠĠ": 6874,
      "ocument": 6875,
      "Ġupdated": 6876,
      ".')": 6877,
      "vals": 6878,
      "Ġpig": 6879,
      "Ġheader": 6880,
      "Ġhero": 6881,
      "Ġprovider": 6882,
      "Ġvitamin": 6883,
      "Me": 6884,
      "Ġseconds": 6885,
      "itc": 6886,
      "Ġstem": 6887,
      "Ġtransmission": 6888,
      "Ġbiological": 6889,
      "Ġprinciple": 6890,
      "display": 6891,
      "columns": 6892,
      "rypt": 6893,
      "xx": 6894,
      "ĠBay": 6895,
      "My": 6896,
      "direct": 6897,
      "Ġtab": 6898,
      "Ġlose": 6899,
      "sn": 6900,
      "Ġartificial": 6901,
      "Ġaccounts": 6902,
      "Ġpsychological": 6903,
      "ĠRussia": 6904,
      "Ġextended": 6905,
      "Ġtrial": 6906,
      "fra": 6907,
      "ĠMac": 6908,
      "ĠRobert": 6909,
      "fall": 6910,
      "cluded": 6911,
      "Ġliterary": 6912,
      "Ġagriculture": 6913,
      "Ġmodify": 6914,
      "Ġadequ": 6915,
      "Ġblocks": 6916,
      "Ġwildlife": 6917,
      "Ġconsidering": 6918,
      "Ġresidents": 6919,
      "Ġkn": 6920,
      "Ġscre": 6921,
      "ĠSte": 6922,
      "Ġdesigns": 6923,
      "Ġcolumns": 6924,
      "NS": 6925,
      "iated": 6926,
      "Ġproport": 6927,
      "ĠNOT": 6928,
      "Ġprotected": 6929,
      "Ġparticipate": 6930,
      "Ġconventional": 6931,
      "Ġunexpected": 6932,
      "Ġcalculate": 6933,
      "pet": 6934,
      "Ġstars": 6935,
      "Ġimprovement": 6936,
      "Ġemergency": 6937,
      "Ġevaluate": 6938,
      "Ġbow": 6939,
      "Ġpromin": 6940,
      "oking": 6941,
      "ĠPower": 6942,
      "ĠEnt": 6943,
      "Ġtoler": 6944,
      "Ġreact": 6945,
      "Although": 6946,
      "Ġadvantages": 6947,
      "itivity": 6948,
      "Ġharvest": 6949,
      "Ġcategories": 6950,
      "Ġbool": 6951,
      "Ġthorough": 6952,
      "Ġsched": 6953,
      "Ġdemonstrate": 6954,
      "Ġmanufacturing": 6955,
      "Table": 6956,
      "Ġparse": 6957,
      "validate": 6958,
      "Ġinitiatives": 6959,
      "Ġalle": 6960,
      "Ġpersons": 6961,
      "ĠAmong": 6962,
      "Ġaudience": 6963,
      "connected": 6964,
      "\\\\": 6965,
      "ulin": 6966,
      "osite": 6967,
      "Ġmorning": 6968,
      "Ġisland": 6969,
      "Ġrural": 6970,
      "Ġdut": 6971,
      "Ġstret": 6972,
      "istan": 6973,
      "Ġhealing": 6974,
      "Ġphr": 6975,
      "osa": 6976,
      "Ġip": 6977,
      "Ġwalls": 6978,
      "Ġexpectations": 6979,
      "Ġtun": 6980,
      "uma": 6981,
      "Ġtypical": 6982,
      "ALL": 6983,
      "Ġdomestic": 6984,
      "ĠNASA": 6985,
      "Ġessay": 6986,
      "ael": 6987,
      "anes": 6988,
      "rend": 6989,
      "Ġmanner": 6990,
      "oxide": 6991,
      "Part": 6992,
      "Ġmort": 6993,
      "Ġstyles": 6994,
      "ializer": 6995,
      "Ġinsight": 6996,
      "Ġbranch": 6997,
      "Ġfunding": 6998,
      "ini": 6999,
      "ĊĠĠĠĠĠĠĠĠĠĠĠĠĠĠĠĠĠĠĠĠĠĠĠĠĠĠ": 7000,
      "Ġrecorded": 7001,
      "MM": 7002,
      "Ġath": 7003,
      "Ġcrisis": 7004,
      "Ġentirely": 7005,
      "CONF": 7006,
      "Ġtested": 7007,
      "Ġdepict": 7008,
      "ME": 7009,
      "pers": 7010,
      "channel": 7011,
      "Ġbudget": 7012,
      "Ġtaste": 7013,
      "elled": 7014,
      "Ġphilosophy": 7015,
      "Ġconscious": 7016,
      "Ġpaid": 7017,
      "ĠOb": 7018,
      "temp": 7019,
      "Ġsuffering": 7020,
      "ivery": 7021,
      "ville": 7022,
      "ĠIsland": 7023,
      "Ġpull": 7024,
      "ĠLatin": 7025,
      "Ġrecognition": 7026,
      "asy": 7027,
      "%(": 7028,
      "Ġwet": 7029,
      "Ġlock": 7030,
      "Ġstone": 7031,
      "prot": 7032,
      "ategory": 7033,
      "Ġrows": 7034,
      "Ġconcentration": 7035,
      "ĠĠĠĠĠĠĠĠĠĠĠ": 7036,
      "Ġunderstood": 7037,
      "ashion": 7038,
      "nes": 7039,
      "Ġmetab": 7040,
      "ĠTim": 7041,
      "Ġiter": 7042,
      "Ġhearing": 7043,
      "Ġthereby": 7044,
      "Ġpair": 7045,
      "ĠJud": 7046,
      "Ġattributes": 7047,
      "Ġcm": 7048,
      "Ġreform": 7049,
      "cket": 7050,
      "'][": 7051,
      "ĠTur": 7052,
      "Ġsocieties": 7053,
      "ĠLabor": 7054,
      "mation": 7055,
      "Ġwants": 7056,
      "soft": 7057,
      "Ġbelief": 7058,
      "Ġemerged": 7059,
      "Ġmedications": 7060,
      "BC": 7061,
      "di": 7062,
      "amps": 7063,
      "Ġbrother": 7064,
      "Ġshop": 7065,
      "Ġplayers": 7066,
      "Ġobjective": 7067,
      "Ġthreats": 7068,
      "Ġclaims": 7069,
      "Ġtechnological": 7070,
      "Ġwaiting": 7071,
      "ĠHen": 7072,
      "Ġinterface": 7073,
      "HOUT": 7074,
      "Ġwave": 7075,
      "ifest": 7076,
      "perties": 7077,
      "such": 7078,
      "adian": 7079,
      "Ġ<=": 7080,
      "Ġcos": 7081,
      "assion": 7082,
      "widget": 7083,
      "NO": 7084,
      "Sim": 7085,
      "arter": 7086,
      "Ġnan": 7087,
      "Ġexplo": 7088,
      "ERR": 7089,
      "Ġlifest": 7090,
      "Finally": 7091,
      "Ġadministration": 7092,
      "Ġdivided": 7093,
      "Ġparticipation": 7094,
      "Ġsouthern": 7095,
      "ĠTitle": 7096,
      "ria": 7097,
      "Ġkilled": 7098,
      "Ġinsert": 7099,
      "Ġintricate": 7100,
      "ĠMiss": 7101,
      "pin": 7102,
      "Ġdialogue": 7103,
      "Ġinstalled": 7104,
      "Ġassemb": 7105,
      "Ġshel": 7106,
      "hips": 7107,
      "Ġcollected": 7108,
      "gex": 7109,
      "Ġproducing": 7110,
      "Ġconsumers": 7111,
      "omy": 7112,
      "Integer": 7113,
      "ician": 7114,
      "Ġdesc": 7115,
      "arios": 7116,
      "power": 7117,
      "Ġwire": 7118,
      "Ġban": 7119,
      "ĠLou": 7120,
      "rick": 7121,
      "Ġsimultane": 7122,
      "Ġprofessor": 7123,
      "hash": 7124,
      "ĠLanguage": 7125,
      "Ġartist": 7126,
      "ĠMedical": 7127,
      "pub": 7128,
      "ĠJe": 7129,
      "Ġequival": 7130,
      "Ġlimits": 7131,
      "ĠEngine": 7132,
      "bor": 7133,
      "Ġcreatures": 7134,
      "Ġswitch": 7135,
      "Ġpackage": 7136,
      "fill": 7137,
      "wing": 7138,
      "Ġenum": 7139,
      "Ġencourages": 7140,
      "ĠPsych": 7141,
      "Ġrely": 7142,
      "scri": 7143,
      "Ġeveryday": 7144,
      "exist": 7145,
      "quality": 7146,
      "Ġgrade": 7147,
      "hyth": 7148,
      "Ġgirls": 7149,
      "Ġuniverse": 7150,
      "']:": 7151,
      "Ġinstruments": 7152,
      "report": 7153,
      "Ġsan": 7154,
      "Ġresolution": 7155,
      "Ġattribute": 7156,
      "otes": 7157,
      "ĠMass": 7158,
      "Ġsections": 7159,
      "exception": 7160,
      "Ġenabling": 7161,
      "Ġkm": 7162,
      "ĠMult": 7163,
      "Ġamid": 7164,
      "Ġformal": 7165,
      "Ġcoff": 7166,
      "Ġwriters": 7167,
      "Ġphotos": 7168,
      "Last": 7169,
      "Ġmassive": 7170,
      "Ġhundreds": 7171,
      "ĠSal": 7172,
      "ĠLand": 7173,
      "Ġofficials": 7174,
      "ented": 7175,
      "ĠFinally": 7176,
      "Ġunf": 7177,
      "Ġbrings": 7178,
      "Ġcommitment": 7179,
      "Ġsustainability": 7180,
      "arity": 7181,
      "Ġnit": 7182,
      "uality": 7183,
      "Ġfloor": 7184,
      "handler": 7185,
      "DB": 7186,
      "Ġattend": 7187,
      "Ġenthus": 7188,
      "Ġcomplexity": 7189,
      "ibraries": 7190,
      "ĠLong": 7191,
      "Ġpermission": 7192,
      "Ġwhereas": 7193,
      "Ġdetailed": 7194,
      "Ġvisible": 7195,
      "Ġbeneficial": 7196,
      "Ġpositions": 7197,
      "Ġartistic": 7198,
      "Ġorganized": 7199,
      "Ġrepresented": 7200,
      "tags": 7201,
      "Ġnu": 7202,
      "Ġminim": 7203,
      "Ġtells": 7204,
      "bra": 7205,
      "Ġsen": 7206,
      "Ġzone": 7207,
      "cod": 7208,
      "urd": 7209,
      "Ġrough": 7210,
      "ĊĠĠĠĠĠĠĠĠĠĠĠĠĠĠĠĠĠĠĠĠĠĠĠĠĠĠĠĠĠĠĠĠĠĠĠĠĠĠĠ": 7211,
      "Ġprevention": 7212,
      "Ġrecognized": 7213,
      "ij": 7214,
      "ĠSum": 7215,
      "agon": 7216,
      "Ġelectronic": 7217,
      "handle": 7218,
      "Ġobvious": 7219,
      "login": 7220,
      "CA": 7221,
      "img": 7222,
      "Ġsubstance": 7223,
      "Ġcache": 7224,
      "Ġsuc": 7225,
      "ĠNon": 7226,
      "ĠWITHOUT": 7227,
      "IES": 7228,
      "ĠTreat": 7229,
      "Ġsky": 7230,
      "Ġguess": 7231,
      "Ġslowly": 7232,
      "Ġtap": 7233,
      "ora": 7234,
      "Ġinject": 7235,
      "Ġtow": 7236,
      "uri": 7237,
      "Ġexercises": 7238,
      "else": 7239,
      "Ġnaturally": 7240,
      "ibl": 7241,
      "Ġpartner": 7242,
      "ORT": 7243,
      "Ġdemonstrated": 7244,
      "\").": 7245,
      "QL": 7246,
      "kes": 7247,
      "ĠMart": 7248,
      "Property": 7249,
      "changed": 7250,
      "Ġmarkets": 7251,
      "inch": 7252,
      "Ġstands": 7253,
      "Ġnorthern": 7254,
      "usiness": 7255,
      "Ġcompare": 7256,
      "Ġrecycl": 7257,
      "Ġrealm": 7258,
      "timeout": 7259,
      "ĠFranc": 7260,
      "ĠKore": 7261,
      "Ġconversation": 7262,
      "ĠDiff": 7263,
      "ensus": 7264,
      "Ġlargely": 7265,
      "During": 7266,
      "Go": 7267,
      "Ġrail": 7268,
      "Ġowner": 7269,
      "ĠBritain": 7270,
      "ĠGlobal": 7271,
      "ĠCurrent": 7272,
      "cut": 7273,
      "ĠAcc": 7274,
      "ĠWomen": 7275,
      "ĠFort": 7276,
      "IDS": 7277,
      "Ġcrim": 7278,
      "Ġemployed": 7279,
      "ĠFlor": 7280,
      "ĠQt": 7281,
      "ĠOnly": 7282,
      "site": 7283,
      "swith": 7284,
      "Ġsummary": 7285,
      "Ġdecrease": 7286,
      "Ġinfected": 7287,
      "van": 7288,
      "Ġforget": 7289,
      "Ġstation": 7290,
      "Ġconver": 7291,
      "Ġheaders": 7292,
      "Ġaffecting": 7293,
      "Ġpeak": 7294,
      "Ġcollections": 7295,
      "Ġfunctional": 7296,
      "Ġboost": 7297,
      "Ġauthorities": 7298,
      "Ġtherap": 7299,
      "elet": 7300,
      "ĠDise": 7301,
      "Ġexamination": 7302,
      "Ġconfident": 7303,
      "PAT": 7304,
      "miss": 7305,
      "ĠPacific": 7306,
      "install": 7307,
      "inv": 7308,
      "Ġgun": 7309,
      "execute": 7310,
      "athe": 7311,
      "mas": 7312,
      "Ġseeing": 7313,
      "Ġconflicts": 7314,
      "ka": 7315,
      "Ġtro": 7316,
      "ĠMil": 7317,
      "ĠTexas": 7318,
      "Ġnarrow": 7319,
      "register": 7320,
      "Ġpainting": 7321,
      "Create": 7322,
      "Mock": 7323,
      "iology": 7324,
      "ideos": 7325,
      "Ġbutter": 7326,
      "Ġcertainly": 7327,
      "Ġrobust": 7328,
      "Cur": 7329,
      "Message": 7330,
      "Of": 7331,
      "Ġmeals": 7332,
      "Ġstanding": 7333,
      "ĠEnvironmental": 7334,
      "Ġdin": 7335,
      "ola": 7336,
      "Column": 7337,
      "ĠRetrieved": 7338,
      "Te": 7339,
      "Ġpaths": 7340,
      "ĠCommission": 7341,
      "ocratic": 7342,
      "igma": 7343,
      "Ġflag": 7344,
      "Ġsecondary": 7345,
      "Ġimplemented": 7346,
      "Ġignore": 7347,
      "Ġrank": 7348,
      "onomy": 7349,
      "Ġsed": 7350,
      "Ġinherent": 7351,
      "Ġreject": 7352,
      "Ġdistingu": 7353,
      "Ġproviders": 7354,
      "Ġbrand": 7355,
      "Ġastr": 7356,
      "Ġcomposition": 7357,
      "ressive": 7358,
      "Ġexpensive": 7359,
      "groups": 7360,
      "Ġbrown": 7361,
      "iday": 7362,
      "ĠOld": 7363,
      "Ġarrived": 7364,
      "Ġdetection": 7365,
      "iciency": 7366,
      "ĠWelcome": 7367,
      "eph": 7368,
      "startswith": 7369,
      "ĠSmith": 7370,
      "----------": 7371,
      "Ġtheme": 7372,
      "Ġregul": 7373,
      "Ġentity": 7374,
      "Ġlistening": 7375,
      "pay": 7376,
      "Ġabund": 7377,
      "Ġstudied": 7378,
      "web": 7379,
      "Ġmeasured": 7380,
      "Ġcolleag": 7381,
      "policy": 7382,
      "ascular": 7383,
      "derr": 7384,
      "Ġ'_": 7385,
      "ĠBer": 7386,
      "ĠAcad": 7387,
      "ĠMedicine": 7388,
      "Group": 7389,
      "Chapter": 7390,
      "ĠEnc": 7391,
      "ĠAtl": 7392,
      "ABLE": 7393,
      "ulary": 7394,
      "ĠCam": 7395,
      "Ġabsolute": 7396,
      "ena": 7397,
      ".*": 7398,
      "igital": 7399,
      "Ġgal": 7400,
      "ontal": 7401,
      "Ġ::": 7402,
      "Ġfocuses": 7403,
      "Ġmarine": 7404,
      "ĠMexico": 7405,
      "math": 7406,
      "Ġreader": 7407,
      "cluding": 7408,
      "ĠStudy": 7409,
      "cules": 7410,
      "Ġcrops": 7411,
      "Ġkil": 7412,
      "Ġaccessible": 7413,
      "Ġmobile": 7414,
      "ĠName": 7415,
      "Ġopened": 7416,
      "Ġinflammation": 7417,
      "car": 7418,
      "states": 7419,
      "Ġallerg": 7420,
      "insert": 7421,
      "Ass": 7422,
      "Most": 7423,
      "pread": 7424,
      "sql": 7425,
      "Ġcomfortable": 7426,
      "olf": 7427,
      "success": 7428,
      "Frame": 7429,
      ")[": 7430,
      "Under": 7431,
      "ĠSen": 7432,
      "umin": 7433,
      "Ġalike": 7434,
      "usr": 7435,
      "ĠURL": 7436,
      "Ġstrict": 7437,
      "Ġchart": 7438,
      "Ġ%(": 7439,
      "Ġintegration": 7440,
      "Ġbarriers": 7441,
      "Ġprofound": 7442,
      "ĠFederal": 7443,
      "ĠNature": 7444,
      "tim": 7445,
      "ĠPers": 7446,
      "Ġindicates": 7447,
      "Ġagree": 7448,
      "cribe": 7449,
      "Ġseemed": 7450,
      "Ġcompetition": 7451,
      "Ġpil": 7452,
      "Ġexplicit": 7453,
      "Ġarts": 7454,
      "Ġcontinuous": 7455,
      "stone": 7456,
      "Ġsymbols": 7457,
      "Ġorient": 7458,
      "ĠHappy": 7459,
      "Ġrepeated": 7460,
      "Ġimpossible": 7461,
      "Ġlands": 7462,
      "Ġgall": 7463,
      "serve": 7464,
      "Ġholds": 7465,
      "Ġvulnerable": 7466,
      "style": 7467,
      "Ġinspect": 7468,
      "ĠNews": 7469,
      "Ġembark": 7470,
      "home": 7471,
      "ĠScient": 7472,
      "after": 7473,
      "Ġneur": 7474,
      "Ġportion": 7475,
      "ILITY": 7476,
      "ĠJer": 7477,
      "Ġhandling": 7478,
      "ocabulary": 7479,
      "Americ": 7480,
      "ĠRad": 7481,
      "ĠThomas": 7482,
      "Ġpure": 7483,
      "Ġplt": 7484,
      "Ġintellectual": 7485,
      "rot": 7486,
      "oted": 7487,
      "Ġapparent": 7488,
      "erals": 7489,
      "Ġsteel": 7490,
      "ĠEst": 7491,
      "Ġadministr": 7492,
      "Ġcart": 7493,
      "ierarch": 7494,
      "Ġengaged": 7495,
      "Ġinches": 7496,
      "Ġdataset": 7497,
      "Ġprotecting": 7498,
      "headers": 7499,
      "rid": 7500,
      "Ġsought": 7501,
      "Ġscholars": 7502,
      "illa": 7503,
      "apsh": 7504,
      "=%": 7505,
      "Per": 7506,
      "Ġindustries": 7507,
      "ĠVirgin": 7508,
      "sole": 7509,
      "Ġturns": 7510,
      "'},": 7511,
      "Ġaccepted": 7512,
      "SA": 7513,
      "Ġtooth": 7514,
      "bound": 7515,
      "ude": 7516,
      "Ġgluc": 7517,
      "Ġapplicable": 7518,
      "SU": 7519,
      "AGE": 7520,
      "Ġblank": 7521,
      "Ġconstit": 7522,
      "encode": 7523,
      "rian": 7524,
      "ishment": 7525,
      "Ġcaptiv": 7526,
      "Ġmuseum": 7527,
      "Ġalgorithms": 7528,
      "found": 7529,
      "Ġcurious": 7530,
      "Ġprogramming": 7531,
      "Ġstability": 7532,
      "Ġwarr": 7533,
      "ĠModel": 7534,
      "avors": 7535,
      "Ġmood": 7536,
      "Ġstd": 7537,
      "Ġstake": 7538,
      "ĠPoint": 7539,
      "Handler": 7540,
      "ĠLook": 7541,
      "Ġlun": 7542,
      "assertIs": 7543,
      "Ġnegot": 7544,
      "Ġidentifying": 7545,
      "Ġhorse": 7546,
      "IA": 7547,
      "Example": 7548,
      "Ġforests": 7549,
      "Ġtub": 7550,
      "ighter": 7551,
      "Ġnoticed": 7552,
      "Ġinputs": 7553,
      "Ġfabric": 7554,
      "hav": 7555,
      "aked": 7556,
      "ĠReport": 7557,
      "Ġfacilitate": 7558,
      "tab": 7559,
      "zen": 7560,
      "AND": 7561,
      "Ġcharacterized": 7562,
      "Ġreactions": 7563,
      "asts": 7564,
      "Ġdealing": 7565,
      "Ġinsects": 7566,
      "Ð¾": 7567,
      "Ġcamera": 7568,
      "atial": 7569,
      "Ġcurriculum": 7570,
      "Ġgoverning": 7571,
      "Ġrepresenting": 7572,
      "elihood": 7573,
      "ette": 7574,
      "Ġnoise": 7575,
      "Ġroutine": 7576,
      "Ġevaluation": 7577,
      "Ġwaves": 7578,
      "ĠStr": 7579,
      "Ġpossibilities": 7580,
      "Ġpreferences": 7581,
      ")*": 7582,
      "Ġconsumer": 7583,
      "ao": 7584,
      "Ġreq": 7585,
      "ĠField": 7586,
      "Ġutf": 7587,
      "Ġroute": 7588,
      "See": 7589,
      "custom": 7590,
      "eal": 7591,
      "Ġindeed": 7592,
      "Ġinitially": 7593,
      "Ġbroken": 7594,
      "gers": 7595,
      "Ġregardless": 7596,
      "vate": 7597,
      "ĠGood": 7598,
      "PRO": 7599,
      "atric": 7600,
      "Ġnur": 7601,
      "ĠTw": 7602,
      "setup": 7603,
      "Ġcontributions": 7604,
      "Ġrequests": 7605,
      "dem": 7606,
      "div": 7607,
      "aser": 7608,
      "Ġunless": 7609,
      "Ġagreement": 7610,
      "Ġnest": 7611,
      "Ġrevealed": 7612,
      "Ġsusp": 7613,
      "FAULT": 7614,
      "move": 7615,
      "Ġgetattr": 7616,
      "Ġthanks": 7617,
      "CD": 7618,
      "chers": 7619,
      "try": 7620,
      "Ġborder": 7621,
      "indu": 7622,
      "Ġprem": 7623,
      "grid": 7624,
      "clear": 7625,
      "Ġoptional": 7626,
      "Ġethnic": 7627,
      "awn": 7628,
      "Ġlearners": 7629,
      "Ġserving": 7630,
      "ployment": 7631,
      "ĠCatholic": 7632,
      "Ġcoun": 7633,
      "Ġgent": 7634,
      "Ġcardi": 7635,
      "Fact": 7636,
      "SH": 7637,
      "itative": 7638,
      "Ġpolice": 7639,
      "Ġentertain": 7640,
      "NE": 7641,
      "Ġaccel": 7642,
      "scrib": 7643,
      "Ġcapabilities": 7644,
      "Ġimmediate": 7645,
      "Ġuncertain": 7646,
      "erge": 7647,
      "Ġmoments": 7648,
      "Ġcompliance": 7649,
      "mask": 7650,
      "nn": 7651,
      "Ġmeal": 7652,
      "Ġbutton": 7653,
      "ĠArmy": 7654,
      "Ġprofile": 7655,
      "Ġdisk": 7656,
      "Ġcul": 7657,
      "Ġmetadata": 7658,
      "Ġsupplies": 7659,
      "Ġfif": 7660,
      "Ġlabels": 7661,
      "MD": 7662,
      "ride": 7663,
      "uce": 7664,
      "Ġinhab": 7665,
      "Ġemployment": 7666,
      "forcement": 7667,
      "Ġtransformation": 7668,
      "Ġpregnancy": 7669,
      "rape": 7670,
      "angle": 7671,
      "Ġremarkable": 7672,
      "SP": 7673,
      "ami": 7674,
      "ĠWrit": 7675,
      "ĠConstitution": 7676,
      "omach": 7677,
      "ĠSign": 7678,
      "ĠExt": 7679,
      "ĠNum": 7680,
      "ĠAdv": 7681,
      "ĠBet": 7682,
      "Ġdiscussing": 7683,
      "kind": 7684,
      "ĠEr": 7685,
      "Ġdelivery": 7686,
      "Ġsentence": 7687,
      "ĊĠĠĠĠĠĠ": 7688,
      "ĠAp": 7689,
      "Ġorg": 7690,
      "cycl": 7691,
      "Ġcorrectly": 7692,
      "Ġagencies": 7693,
      "Ġgrid": 7694,
      "Ġadopted": 7695,
      "FO": 7696,
      "spe": 7697,
      "xf": 7698,
      "compute": 7699,
      "Ġgrew": 7700,
      "ocracy": 7701,
      "Ġroof": 7702,
      "Ġconversations": 7703,
      "SON": 7704,
      "Ġconvey": 7705,
      "Inter": 7706,
      "ĠWhether": 7707,
      "comfort": 7708,
      "Med": 7709,
      "course": 7710,
      "ĠNative": 7711,
      "ĠSea": 7712,
      "Ġempower": 7713,
      "Ġmitig": 7714,
      "security": 7715,
      "Ġsetup": 7716,
      "?âĢĿ": 7717,
      "exc": 7718,
      "ella": 7719,
      "raises": 7720,
      "Ġsupplement": 7721,
      "emia": 7722,
      "Ġmedication": 7723,
      "onsequ": 7724,
      "Dir": 7725,
      "ATA": 7726,
      "Ġdebate": 7727,
      "Ġdrawn": 7728,
      "Ġtut": 7729,
      "stat": 7730,
      "Ġhtml": 7731,
      "ĠPerson": 7732,
      "ishes": 7733,
      "rovers": 7734,
      "idespread": 7735,
      "ĠEnd": 7736,
      "ĠNetwork": 7737,
      "ĠBre": 7738,
      "ĠLibrary": 7739,
      "Ġexpansion": 7740,
      "Ġcontributing": 7741,
      "Ġconsideration": 7742,
      "Ġdemands": 7743,
      "Ġconcerned": 7744,
      "Ġenhancing": 7745,
      "Ġinjuries": 7746,
      "Ġembracing": 7747,
      "yp": 7748,
      "Ġnic": 7749,
      "Ġnotable": 7750,
      "ĠLog": 7751,
      "Ġaccum": 7752,
      "Ġplayer": 7753,
      "Ġfocusing": 7754,
      "ĠCompany": 7755,
      "Ġteams": 7756,
      "Ġflight": 7757,
      "ventions": 7758,
      "Ġcrop": 7759,
      "ctic": 7760,
      "Ġrub": 7761,
      "Event": 7762,
      "Ġdf": 7763,
      "Ġsyndrome": 7764,
      "licenses": 7765,
      "Ġdimensions": 7766,
      "ĠDoes": 7767,
      "Ġagent": 7768,
      "Ġaqu": 7769,
      "ĠSl": 7770,
      "ĠMo": 7771,
      "Ġwhenever": 7772,
      "/>": 7773,
      "public": 7774,
      "idity": 7775,
      "Ġintroduction": 7776,
      "track": 7777,
      "Ġencounter": 7778,
      "Ġequivalent": 7779,
      "anches": 7780,
      "Ġcriteria": 7781,
      "ĠSarah": 7782,
      "Lib": 7783,
      "Ġ</": 7784,
      "ĠModern": 7785,
      "Ġvolunte": 7786,
      "Ġsales": 7787,
      "abel": 7788,
      "Ġminimize": 7789,
      "Ġ\"\"": 7790,
      "itchen": 7791,
      "eric": 7792,
      "Ġstack": 7793,
      "exit": 7794,
      "Ġdirector": 7795,
      "rons": 7796,
      "ĠUs": 7797,
      "ĠChild": 7798,
      "Ġdelete": 7799,
      "Ġcustomer": 7800,
      "Ġappeared": 7801,
      "Ġcoffee": 7802,
      "ĠMars": 7803,
      "Ġagency": 7804,
      "Ġreliable": 7805,
      "Ġexplains": 7806,
      "Parser": 7807,
      "uted": 7808,
      "oples": 7809,
      "Ext": 7810,
      "ye": 7811,
      "ĠMont": 7812,
      "Ġcourses": 7813,
      "Ġdivision": 7814,
      "variable": 7815,
      "ba": 7816,
      "unicode": 7817,
      "ĠBefore": 7818,
      "Ġoutdo": 7819,
      "Ġmyster": 7820,
      "enabled": 7821,
      "Ġdiag": 7822,
      "....": 7823,
      "Ġcomplicated": 7824,
      "ĠYet": 7825,
      "Ġsubstantial": 7826,
      "Ġwife": 7827,
      "etics": 7828,
      "Ġpreval": 7829,
      "Ġgreatest": 7830,
      "Ġheavily": 7831,
      "OK": 7832,
      "Ġtoken": 7833,
      "Ġeast": 7834,
      "Ġpreserve": 7835,
      "telling": 7836,
      "eras": 7837,
      "aining": 7838,
      "(?": 7839,
      "ĠFind": 7840,
      "prim": 7841,
      "ographical": 7842,
      "inates": 7843,
      "Ġaer": 7844,
      "Ġoverw": 7845,
      "Ġdelay": 7846,
      "Pre": 7847,
      "Ġracial": 7848,
      "cium": 7849,
      "Ġsubstances": 7850,
      "required": 7851,
      "Em": 7852,
      "ĠThose": 7853,
      "ruption": 7854,
      "ĠImp": 7855,
      "Ġindependence": 7856,
      "ua": 7857,
      "Ġorganisms": 7858,
      "ĠUSA": 7859,
      "ĠAbout": 7860,
      "rh": 7861,
      "Ġinher": 7862,
      "aml": 7863,
      "ĠJack": 7864,
      "Ġturning": 7865,
      "Ġexpressed": 7866,
      "ĠEth": 7867,
      "bytes": 7868,
      "Ġpreparation": 7869,
      "bert": 7870,
      "ĠTogether": 7871,
      "++++": 7872,
      "Ġapi": 7873,
      "ĠDE": 7874,
      "Ġuns": 7875,
      "controll": 7876,
      "Other": 7877,
      "ZE": 7878,
      "Ġfly": 7879,
      "Ġ\"/": 7880,
      "Ġcouple": 7881,
      "Ġtheore": 7882,
      "Ġimplementing": 7883,
      "dt": 7884,
      "isk": 7885,
      "Ġsurve": 7886,
      "Ġobtained": 7887,
      "ĠDiv": 7888,
      "Ġarmy": 7889,
      "control": 7890,
      "Ġfunds": 7891,
      "Back": 7892,
      "live": 7893,
      "Ġwidespread": 7894,
      "Ġrequiring": 7895,
      "ĠFrank": 7896,
      "download": 7897,
      "Ġbreathing": 7898,
      "Ðµ": 7899,
      "ĠMag": 7900,
      "Ġapplying": 7901,
      "Ġholding": 7902,
      "Ġlaunch": 7903,
      "ĠTODO": 7904,
      "Ġdensity": 7905,
      "Ġreduces": 7906,
      "ĠSov": 7907,
      "Ġmolecules": 7908,
      "Fil": 7909,
      "Dr": 7910,
      "errors": 7911,
      "agraph": 7912,
      "Ġclothing": 7913,
      "orses": 7914,
      "Ġparallel": 7915,
      "Ġtrip": 7916,
      "Ġachieved": 7917,
      "Ġsatell": 7918,
      "Ġalgorithm": 7919,
      "norm": 7920,
      "Ġmaps": 7921,
      "Ġgap": 7922,
      ":]": 7923,
      "IF": 7924,
      "Ġasp": 7925,
      "Ġarms": 7926,
      "ĠStreet": 7927,
      "Ġmodified": 7928,
      "Ġvillage": 7929,
      "cb": 7930,
      "yroid": 7931,
      "Ġbeings": 7932,
      "ĠSchol": 7933,
      "aped": 7934,
      "Ġdocumentation": 7935,
      "Ġwra": 7936,
      "Ġfewer": 7937,
      "lights": 7938,
      "grade": 7939,
      "perm": 7940,
      "Ġinfluences": 7941,
      "Ġmarriage": 7942,
      "Ġrect": 7943,
      "quit": 7944,
      "Ġrom": 7945,
      "Ġflavor": 7946,
      "Ġconcerning": 7947,
      "Ġsurvive": 7948,
      "Ġmountain": 7949,
      ":%": 7950,
      "cd": 7951,
      "Ġdevelopments": 7952,
      "ĠIndigenous": 7953,
      "Ġinvestigation": 7954,
      "oric": 7955,
      "Ġdescribes": 7956,
      "Ġmathematical": 7957,
      "Ġexperiments": 7958,
      "ĠComput": 7959,
      "Ġmusical": 7960,
      "irus": 7961,
      "cies": 7962,
      "Ġfashion": 7963,
      "ĠAccess": 7964,
      "Ġhappening": 7965,
      "Ġtargets": 7966,
      "Ġprison": 7967,
      "Invalid": 7968,
      "Ġflour": 7969,
      "Bl": 7970,
      "kin": 7971,
      "ĠConsequ": 7972,
      "Ġsurfaces": 7973,
      "Ġcenters": 7974,
      "ĠConfig": 7975,
      "Ġauto": 7976,
      "TE": 7977,
      "Ġaims": 7978,
      "Ġdispar": 7979,
      "Ġsimultaneously": 7980,
      "Ġnewsp": 7981,
      "Ġsizes": 7982,
      "ĠPet": 7983,
      "ĠEv": 7984,
      "Ġends": 7985,
      "Ġyounger": 7986,
      "Ġcorresponding": 7987,
      "Ġconven": 7988,
      "ĠCap": 7989,
      "Ġreson": 7990,
      "Ġages": 7991,
      "Ġwellbeing": 7992,
      "Ġoperate": 7993,
      "IONS": 7994,
      "ĠBible": 7995,
      "Ġacknowled": 7996,
      "Ġunus": 7997,
      "Ġpaint": 7998,
      "Red": 7999,
      "Ġstable": 8000,
      "Ġrelation": 8001,
      "Ġanalyzing": 8002,
      "Point": 8003,
      "Ġlatter": 8004,
      "activ": 8005,
      "ĠUt": 8006,
      "rule": 8007,
      "elta": 8008,
      "ĠAPI": 8009,
      "Ġopinion": 8010,
      "Fl": 8011,
      "Ġstated": 8012,
      "Ġdriver": 8013,
      "schema": 8014,
      "Ġpracticing": 8015,
      "Ġtrials": 8016,
      "aria": 8017,
      "bell": 8018,
      "friend": 8019,
      "Ġconcrete": 8020,
      "Ġprefix": 8021,
      "Ġintroduce": 8022,
      "ABILITY": 8023,
      "Ġversions": 8024,
      "Ġstreet": 8025,
      "EO": 8026,
      "Ġcorner": 8027,
      "ali": 8028,
      "Ġreward": 8029,
      "BS": 8030,
      "Bo": 8031,
      "ĠTV": 8032,
      "Ġguarant": 8033,
      "Ġmanager": 8034,
      "ACT": 8035,
      "Ġmoisture": 8036,
      "ĠEmpire": 8037,
      "Ġlifestyle": 8038,
      "Ġdesire": 8039,
      "ĠSecurity": 8040,
      "chain": 8041,
      "ĠInit": 8042,
      "ropical": 8043,
      "empty": 8044,
      "Ġsucceed": 8045,
      "ĠCy": 8046,
      "ipal": 8047,
      "Ġminds": 8048,
      "Fore": 8049,
      "Ġindu": 8050,
      "rooms": 8051,
      "sts": 8052,
      "plt": 8053,
      "ĠLO": 8054,
      "ĠMean": 8055,
      "Ġdust": 8056,
      "Ġshad": 8057,
      "Ġintent": 8058,
      "ching": 8059,
      "Ġcomprom": 8060,
      "API": 8061,
      "Ġexpertise": 8062,
      "Ġneighborhood": 8063,
      "Ġtables": 8064,
      "Ġprove": 8065,
      "Ġdoor": 8066,
      "Ġdoct": 8067,
      "Ġagents": 8068,
      "Ġembed": 8069,
      "edy": 8070,
      "Ġcomputing": 8071,
      "Ġglucose": 8072,
      "Ġpreserving": 8073,
      "Ġcyber": 8074,
      "ptional": 8075,
      "Ġperforming": 8076,
      "folder": 8077,
      "Count": 8078,
      "Ġdisrupt": 8079,
      "Ġcommands": 8080,
      "blem": 8081,
      "Ġpreventing": 8082,
      "(**": 8083,
      "Ð°": 8084,
      "ald": 8085,
      "Ġnecessarily": 8086,
      "Ġtall": 8087,
      "Ġdental": 8088,
      "ĠText": 8089,
      "osc": 8090,
      "ĠAdminist": 8091,
      "Fe": 8092,
      "gments": 8093,
      "Ġcust": 8094,
      "Ġnone": 8095,
      "Ġcomparison": 8096,
      "Ġsessions": 8097,
      "itical": 8098,
      "Ġspending": 8099,
      "Ġhumanity": 8100,
      "Ġcontrols": 8101,
      "Ġphotograph": 8102,
      "iders": 8103,
      "Ġcomments": 8104,
      "Ġdecline": 8105,
      "Ġfighting": 8106,
      "icensed": 8107,
      "storage": 8108,
      "ĠArgs": 8109,
      "compile": 8110,
      "Ġnorms": 8111,
      "'m": 8112,
      "Ġdifferently": 8113,
      "Ġwestern": 8114,
      "scription": 8115,
      "$$": 8116,
      "orph": 8117,
      "ĠNor": 8118,
      "Ġintake": 8119,
      "Ġangle": 8120,
      "qrt": 8121,
      "stats": 8122,
      "ĠLiter": 8123,
      "Ġcompat": 8124,
      "Ġmoves": 8125,
      "raise": 8126,
      "ĠMaybe": 8127,
      "ĠStart": 8128,
      "ĠReal": 8129,
      "Ġgrad": 8130,
      "Ġmarginal": 8131,
      "Source": 8132,
      "]+": 8133,
      "kins": 8134,
      "Ġles": 8135,
      "ĠOh": 8136,
      "Ġfinished": 8137,
      "Ġincorporate": 8138,
      "Ġprominent": 8139,
      ")/": 8140,
      "rus": 8141,
      "render": 8142,
      "pring": 8143,
      "Ġjoined": 8144,
      "alian": 8145,
      "Ġble": 8146,
      "Ġinhib": 8147,
      "Ġstomach": 8148,
      "Ġchannels": 8149,
      "Ġarise": 8150,
      "ften": 8151,
      "ORD": 8152,
      "Ġinspire": 8153,
      "Ġhousing": 8154,
      "war": 8155,
      "loop": 8156,
      "Ġpurchase": 8157,
      "Ġsubsequent": 8158,
      "ĠTake": 8159,
      "Ġlisted": 8160,
      "Ġworksh": 8161,
      "Ġobservations": 8162,
      "Pe": 8163,
      "tensor": 8164,
      "Ġcompassion": 8165,
      "Ġtwice": 8166,
      "Ġspecialized": 8167,
      "Ġinspiration": 8168,
      "Ġautomatically": 8169,
      "Spec": 8170,
      "Ġfre": 8171,
      "plates": 8172,
      "Ġintegrated": 8173,
      "Ġmechanism": 8174,
      "Ġqualities": 8175,
      "Ġexcessive": 8176,
      "Ġcards": 8177,
      "Ġunders": 8178,
      "Ġcontamin": 8179,
      "Ġoutcome": 8180,
      "Ġcommitted": 8181,
      "Ġefficiently": 8182,
      "Despite": 8183,
      "acles": 8184,
      "Ġfiber": 8185,
      "ĠFlorida": 8186,
      "Ġmes": 8187,
      "keep": 8188,
      "ĠBack": 8189,
      "Ġattached": 8190,
      "Ġelectron": 8191,
      "Ġgreatly": 8192,
      "ĠCarol": 8193,
      "oral": 8194,
      "ĠPub": 8195,
      "ĠLu": 8196,
      "Ġaccident": 8197,
      "Ġathlet": 8198,
      "ĠNatural": 8199,
      "ĠKnow": 8200,
      "Ġexperiencing": 8201,
      "Ġinfluenced": 8202,
      "Ġexport": 8203,
      "thread": 8204,
      "ĠInf": 8205,
      "cm": 8206,
      "ona": 8207,
      "Ġfunc": 8208,
      "Ġvibrant": 8209,
      "bing": 8210,
      "Ġpharm": 8211,
      "Ġmovie": 8212,
      "Ġtrained": 8213,
      "Ġextension": 8214,
      "Ġdifficulty": 8215,
      "Ġbonds": 8216,
      "Ġtur": 8217,
      "ressing": 8218,
      "Ġeditor": 8219,
      "Stud": 8220,
      "Ġpossibly": 8221,
      "Ġruns": 8222,
      "Ġencoding": 8223,
      "Ġepis": 8224,
      "Ġpercentage": 8225,
      "Ġextraord": 8226,
      "Ġoverwhel": 8227,
      "irs": 8228,
      "Ġ'--": 8229,
      "Ġ_(\"": 8230,
      "esity": 8231,
      "Ġdream": 8232,
      "otion": 8233,
      "extra": 8234,
      "RI": 8235,
      "compass": 8236,
      "Ġreveal": 8237,
      "Ġbones": 8238,
      "Ġdepos": 8239,
      "ĠBC": 8240,
      "Ġspin": 8241,
      "Ġprivacy": 8242,
      "Valid": 8243,
      "fast": 8244,
      "Ġdance": 8245,
      "ĊĠĠĠĠĠĠĠĠĠĠĠĠĠĠĠĠĠĠĠĠĠĠĠĠĠĠĠĠĠĠ": 8246,
      "ws": 8247,
      "environ": 8248,
      "Ġfeeding": 8249,
      "Ġevolved": 8250,
      "Ġhel": 8251,
      "ĠHistorical": 8252,
      "Ġfossil": 8253,
      "RA": 8254,
      "how": 8255,
      "HTTP": 8256,
      "Ġmathematics": 8257,
      "eval": 8258,
      "Ġfeat": 8259,
      "Ġargue": 8260,
      "Ġcolleagues": 8261,
      ")\"": 8262,
      "Ġvideos": 8263,
      "ĠNav": 8264,
      "Ġchildhood": 8265,
      "Ġcrime": 8266,
      "Ġsoldiers": 8267,
      "Figure": 8268,
      "LIC": 8269,
      "wait": 8270,
      "Ġtags": 8271,
      "Ġforth": 8272,
      "outs": 8273,
      "icking": 8274,
      "ĠConnect": 8275,
      "Ġengineers": 8276,
      "Ġmigration": 8277,
      "Ġvector": 8278,
      "button": 8279,
      "future": 8280,
      "ĠHome": 8281,
      "Ġextensive": 8282,
      "Ġuniversal": 8283,
      "zed": 8284,
      "coln": 8285,
      "Ġeducators": 8286,
      "ĠCanadian": 8287,
      "ĠProfessor": 8288,
      "ĠWild": 8289,
      "lishing": 8290,
      "ERROR": 8291,
      "Ġcontrovers": 8292,
      "contrib": 8293,
      "Ġmos": 8294,
      "ensional": 8295,
      "parts": 8296,
      "Ġverbose": 8297,
      "Ġexpressions": 8298,
      "Hel": 8299,
      "Ġcash": 8300,
      "Ġwarning": 8301,
      "Ġvote": 8302,
      "Ġmanual": 8303,
      "Ġshed": 8304,
      "Ġassets": 8305,
      "Ġfeels": 8306,
      "Ġmyst": 8307,
      "({'": 8308,
      "Welcome": 8309,
      "Ġtheories": 8310,
      "eting": 8311,
      "Ġlens": 8312,
      "Ġclients": 8313,
      "Ġemotion": 8314,
      "ĠQuest": 8315,
      "Command": 8316,
      "Ġpermanent": 8317,
      "window": 8318,
      "Ġstuff": 8319,
      "aaaa": 8320,
      "rd": 8321,
      "ĠTry": 8322,
      "Ġavailability": 8323,
      "Ġdestination": 8324,
      "Ġwebsites": 8325,
      "Ġnarrative": 8326,
      "Ġfake": 8327,
      "ĠLake": 8328,
      "Ġstrategic": 8329,
      "Ġvessels": 8330,
      "Ġ\".": 8331,
      "Ġoccasion": 8332,
      "lass": 8333,
      "Ġmand": 8334,
      "Ġvalidate": 8335,
      "Ġlaboratory": 8336,
      "ĠLouis": 8337,
      "Ġexplored": 8338,
      "Ġobjectives": 8339,
      "Ġcup": 8340,
      "Ġswim": 8341,
      "Ġwidget": 8342,
      "Ġhouses": 8343,
      "Ġfont": 8344,
      "Ġreprodu": 8345,
      "ĠItaly": 8346,
      "Ġpractition": 8347,
      "lessly": 8348,
      "FOR": 8349,
      "ĠAlice": 8350,
      "venile": 8351,
      "inder": 8352,
      "factory": 8353,
      "Next": 8354,
      "apshot": 8355,
      "PC": 8356,
      "Page": 8357,
      "arse": 8358,
      "Ġreven": 8359,
      "ĠNations": 8360,
      "Ġintrig": 8361,
      "Ġinterventions": 8362,
      "Ġattr": 8363,
      "Ġhash": 8364,
      "Ġcopyright": 8365,
      "Ġadequate": 8366,
      "Ġgentle": 8367,
      "Ġmapping": 8368,
      "entials": 8369,
      "Ġconfir": 8370,
      "Ġnormally": 8371,
      "Meta": 8372,
      "SC": 8373,
      "Ġdescript": 8374,
      "Ġfilters": 8375,
      "bles": 8376,
      "opic": 8377,
      "Ġstatements": 8378,
      "Ġdeaths": 8379,
      "Ġadvancements": 8380,
      "Ġpandemic": 8381,
      "AA": 8382,
      "Ġlibraries": 8383,
      "ĠUlt": 8384,
      "Ġoblig": 8385,
      "Ġwondered": 8386,
      "fish": 8387,
      "rection": 8388,
      "ita": 8389,
      "Ġinterf": 8390,
      "tuple": 8391,
      "vars": 8392,
      "ĠAff": 8393,
      "Ġwhatever": 8394,
      "Ġresulted": 8395,
      "Ġidentities": 8396,
      "ja": 8397,
      "ano": 8398,
      "ector": 8399,
      "ague": 8400,
      "Tem": 8401,
      "onym": 8402,
      "Ġfurn": 8403,
      "Ġlinear": 8404,
      "Ġamidst": 8405,
      "Ġpump": 8406,
      "ĠSat": 8407,
      "Ġadm": 8408,
      "Ġadoles": 8409,
      "Ġmarketing": 8410,
      "Ġhonor": 8411,
      "Ġfertil": 8412,
      "anda": 8413,
      "Ġworse": 8414,
      "Input": 8415,
      "this": 8416,
      "Ġposit": 8417,
      "Client": 8418,
      "Ġtack": 8419,
      "Ġproceed": 8420,
      "Ġadj": 8421,
      "Ġescape": 8422,
      "Ġalter": 8423,
      "osh": 8424,
      "ĠVirginia": 8425,
      "ĠÎ": 8426,
      "Ġinequal": 8427,
      "Element": 8428,
      "cture": 8429,
      "ĠObject": 8430,
      "Ġinsulin": 8431,
      "ĠSpain": 8432,
      "Ġfriendly": 8433,
      "pie": 8434,
      "height": 8435,
      "ett": 8436,
      "ĠAR": 8437,
      "ĠCancer": 8438,
      "Ġtreating": 8439,
      "ĠCommit": 8440,
      "Ġliv": 8441,
      "Ġencouraging": 8442,
      "Ġscenarios": 8443,
      "Pr": 8444,
      "Ġbio": 8445,
      "Ġunable": 8446,
      "Ġteen": 8447,
      "ASE": 8448,
      "Ġreceiving": 8449,
      "Ġwarming": 8450,
      "Index": 8451,
      "burg": 8452,
      "Ġeq": 8453,
      "axes": 8454,
      "ships": 8455,
      "Ġwatching": 8456,
      "ĠOffice": 8457,
      "Serv": 8458,
      "VI": 8459,
      "gression": 8460,
      "omes": 8461,
      "ĠEarly": 8462,
      "verbose": 8463,
      "Ġencompass": 8464,
      "Ġships": 8465,
      "Ġadds": 8466,
      "Ġproduces": 8467,
      "Ġoriginally": 8468,
      "Ġgradually": 8469,
      "ĠSoviet": 8470,
      "Content": 8471,
      "ĠCharles": 8472,
      "Ġranging": 8473,
      "She": 8474,
      "Your": 8475,
      "eries": 8476,
      "Ġrh": 8477,
      "ĠHand": 8478,
      "Ġecosystems": 8479,
      "Ġwx": 8480,
      "ĠĠĠĠĠĠĠĠĠ": 8481,
      "Ġjump": 8482,
      "Ġrefuge": 8483,
      "Ġsheet": 8484,
      "________": 8485,
      "Ġcf": 8486,
      "Ġlists": 8487,
      "Ġanalys": 8488,
      "Ġwarrant": 8489,
      "Ġchrom": 8490,
      "asty": 8491,
      "Ġinteractive": 8492,
      "Ġsuffer": 8493,
      "Ġmagic": 8494,
      "TYPE": 8495,
      "WAR": 8496,
      "ala": 8497,
      "ĠSouthern": 8498,
      "ĠPop": 8499,
      "Ġchol": 8500,
      "matrix": 8501,
      "Co": 8502,
      "ĠTer": 8503,
      "children": 8504,
      "users": 8505,
      "ĠEffect": 8506,
      "Ġwish": 8507,
      "ĠMax": 8508,
      "Ġ'__": 8509,
      "Ġstatistics": 8510,
      "icide": 8511,
      "parameters": 8512,
      "Ġlinea": 8513,
      "Ġconstantly": 8514,
      "Ġchick": 8515,
      "ĠJose": 8516,
      "Ġspark": 8517,
      "ront": 8518,
      "Ġreserv": 8519,
      "Ġmerely": 8520,
      "Lesson": 8521,
      "game": 8522,
      "oded": 8523,
      "Ġshut": 8524,
      "Ġtea": 8525,
      "Ġpresents": 8526,
      "Ġbread": 8527,
      "Ġcontents": 8528,
      "Ġuniform": 8529,
      "Ġseemingly": 8530,
      "stdout": 8531,
      "batch": 8532,
      "ĠRevolution": 8533,
      "ĠColor": 8534,
      "Ġopposite": 8535,
      "Ġsod": 8536,
      "async": 8537,
      "ĠAnalysis": 8538,
      "Ġcombat": 8539,
      "Since": 8540,
      "Ġpup": 8541,
      "ĠBro": 8542,
      "oval": 8543,
      "ĠBob": 8544,
      "Ġcompounds": 8545,
      "Ġcorn": 8546,
      "PT": 8547,
      "tage": 8548,
      "Ġstores": 8549,
      "Ġdishes": 8550,
      "ubs": 8551,
      "Ġovercome": 8552,
      "Ġpassage": 8553,
      "Ġdifficulties": 8554,
      "ĠFrancis": 8555,
      "ĠEastern": 8556,
      "Ġedges": 8557,
      "Start": 8558,
      "Ġprinting": 8559,
      "Ġputting": 8560,
      "cert": 8561,
      "Ġsorted": 8562,
      "Ġlegislation": 8563,
      "Call": 8564,
      "Ġcompr": 8565,
      "Ġmanifest": 8566,
      "ĠHenry": 8567,
      "Ġnerve": 8568,
      "Ġ\"\\": 8569,
      "upp": 8570,
      "Ġabstract": 8571,
      "()[": 8572,
      "ĠChange": 8573,
      "Ġdecade": 8574,
      "ĠDev": 8575,
      "Ġshaped": 8576,
      "################################################################": 8577,
      "dot": 8578,
      "sample": 8579,
      "ugh": 8580,
      "ĠDO": 8581,
      "Ġrice": 8582,
      "Ġwilling": 8583,
      "zip": 8584,
      "izers": 8585,
      "Ġpresentation": 8586,
      "rapeut": 8587,
      "Down": 8588,
      "dig": 8589,
      "Ġthrow": 8590,
      "Ġpeoples": 8591,
      "Ġpatch": 8592,
      "bridge": 8593,
      "csv": 8594,
      "HER": 8595,
      "ĠEmb": 8596,
      "ĠProcess": 8597,
      "Ġmir": 8598,
      "oven": 8599,
      "Ġeffectiveness": 8600,
      "ĠPlay": 8601,
      "Ġhus": 8602,
      "Ġweights": 8603,
      "Ġforming": 8604,
      "features": 8605,
      "Ġattempts": 8606,
      "ĠConsequently": 8607,
      "Ġvisitors": 8608,
      "={'": 8609,
      "BU": 8610,
      "Ġnose": 8611,
      "ĠAge": 8612,
      "Ġdates": 8613,
      "osph": 8614,
      "Ġunw": 8615,
      "queue": 8616,
      "born": 8617,
      "drop": 8618,
      "Ġrepair": 8619,
      "Ġfrequent": 8620,
      "Ġtaxes": 8621,
      "LOG": 8622,
      "ĠVict": 8623,
      "lets": 8624,
      "ĠRome": 8625,
      "Ġpassing": 8626,
      "ĠAnn": 8627,
      "Ġequally": 8628,
      "evision": 8629,
      "Ġreplaced": 8630,
      "âĢĻ.": 8631,
      "ĠOper": 8632,
      "Ġjoy": 8633,
      "ĠMethod": 8634,
      "osion": 8635,
      "ĠSupp": 8636,
      "POST": 8637,
      "Ġrising": 8638,
      "Ġtargeted": 8639,
      "Ġcircuit": 8640,
      "Ġphenomenon": 8641,
      "=['": 8642,
      "Ġfaces": 8643,
      "ĠChem": 8644,
      "Found": 8645,
      "Ġrecept": 8646,
      "Ġreaching": 8647,
      "Ġsolving": 8648,
      "Ġcontributed": 8649,
      "interface": 8650,
      "ĠParis": 8651,
      "Ġhydrogen": 8652,
      "Equ": 8653,
      "otypes": 8654,
      "ĠPeter": 8655,
      "ĠVer": 8656,
      "Ġdioxide": 8657,
      "Ġstructural": 8658,
      "inction": 8659,
      "ĠFollow": 8660,
      "ĠVersion": 8661,
      "Ġrealize": 8662,
      "auto": 8663,
      "ĠCall": 8664,
      "Ġattitudes": 8665,
      "Ġdamaged": 8666,
      "PATH": 8667,
      "Ġhasattr": 8668,
      "Ġpoetry": 8669,
      "DIR": 8670,
      "reams": 8671,
      "acks": 8672,
      "Ġscan": 8673,
      "application": 8674,
      "ĊĠĠĠĠĠĠĠĠĠĠĠĠĠĠĠĠĠĠĠĠĠĠĠĠĠĠĠĠĠĠĠĠĠĠ": 8675,
      "Ġconnecting": 8676,
      "ĠSupport": 8677,
      "Ġinterpretation": 8678,
      "BN": 8679,
      "Ġduration": 8680,
      "ĠCase": 8681,
      "azon": 8682,
      "ĠBase": 8683,
      "ells": 8684,
      "Ġregulation": 8685,
      "Ġlandscapes": 8686,
      "Ġlegisl": 8687,
      "GET": 8688,
      "rier": 8689,
      "ooks": 8690,
      "ĠIslamic": 8691,
      "pip": 8692,
      "rev": 8693,
      "Ġinclusive": 8694,
      "Ġdil": 8695,
      "ĠTor": 8696,
      "Ġobserve": 8697,
      "Ġfo": 8698,
      "Ġfract": 8699,
      "ĠMill": 8700,
      "Ġquiet": 8701,
      "Ġschedule": 8702,
      "ili": 8703,
      "ĠMA": 8704,
      "ĠClin": 8705,
      "Ġpanel": 8706,
      "Ġsaved": 8707,
      "Ġweapons": 8708,
      "Ġ],": 8709,
      "Ġvac": 8710,
      "ĠGold": 8711,
      "ĠAsian": 8712,
      "depth": 8713,
      "Ġtank": 8714,
      "ĠColumb": 8715,
      "Ġsunlight": 8716,
      "Ġextraordinary": 8717,
      "SW": 8718,
      "ican": 8719,
      "struct": 8720,
      "ĠMove": 8721,
      "andon": 8722,
      "health": 8723,
      "ĠCamp": 8724,
      "ĠRE": 8725,
      "neys": 8726,
      "Ġassigned": 8727,
      "Ġgreenhouse": 8728,
      "Ġcalculated": 8729,
      "[:,": 8730,
      "ĠAgr": 8731,
      "ĠAuthor": 8732,
      "Ġaccommod": 8733,
      "Ġcontexts": 8734,
      "ĠTom": 8735,
      "achine": 8736,
      "Ġattach": 8737,
      "Ġelectro": 8738,
      "menu": 8739,
      "fire": 8740,
      "Ġshot": 8741,
      "ĠOcean": 8742,
      "comment": 8743,
      "Ġnewly": 8744,
      "Ġpossibility": 8745,
      "makers": 8746,
      "Ġdoubt": 8747,
      "zeros": 8748,
      "Ġnervous": 8749,
      "Det": 8750,
      "Ġsensors": 8751,
      "ROM": 8752,
      "Ġmechanical": 8753,
      "rine": 8754,
      "Ġacids": 8755,
      "Ġcalcium": 8756,
      "Context": 8757,
      "itan": 8758,
      "ĠGal": 8759,
      "Build": 8760,
      "heast": 8761,
      "ĠSO": 8762,
      "empl": 8763,
      "Ġcream": 8764,
      "Ġfarming": 8765,
      "wd": 8766,
      "Ġfav": 8767,
      "tery": 8768,
      "ĠLine": 8769,
      "Ġbridge": 8770,
      "#!": 8771,
      ").__": 8772,
      "ceptions": 8773,
      "Ġmenu": 8774,
      "Ġcircle": 8775,
      "Ġaudiences": 8776,
      "athered": 8777,
      "gi": 8778,
      "rary": 8779,
      "Äģ": 8780,
      "Ġtales": 8781,
      "Ġinn": 8782,
      "ograp": 8783,
      "ĊĠĠĠĠĠĠĠĠĠĠĠĠĠĠĠĠĠĠĠĠĠĠĠĠĠĠĠĠĠĠĠĠĠ": 8784,
      "collect": 8785,
      "Ġequality": 8786,
      "ĠCommunity": 8787,
      "Ġcryst": 8788,
      "Ġids": 8789,
      "Ġwine": 8790,
      "Ġepid": 8791,
      "Ġlights": 8792,
      "cho": 8793,
      "Ġbranches": 8794,
      "(['": 8795,
      "Ġsight": 8796,
      "Ġsrc": 8797,
      "Ġbear": 8798,
      "antly": 8799,
      "Ġtor": 8800,
      "Ġsql": 8801,
      "eness": 8802,
      "ĠWil": 8803,
      "DR": 8804,
      "ĠSaf": 8805,
      "Ġchief": 8806,
      "owner": 8807,
      "Ġreflection": 8808,
      "Ġdesigning": 8809,
      "Ġstimul": 8810,
      "Ġsensitivity": 8811,
      "Ġviruses": 8812,
      "Ġrecommendations": 8813,
      "Ġmild": 8814,
      "theless": 8815,
      "logging": 8816,
      "ĠFigure": 8817,
      "forms": 8818,
      "Ġstrange": 8819,
      "Ġscenario": 8820,
      "Ġmutual": 8821,
      "vance": 8822,
      "reated": 8823,
      "Ġdisable": 8824,
      "Ġlaun": 8825,
      "Ġcriminal": 8826,
      "unique": 8827,
      "Ġimmigr": 8828,
      "Rel": 8829,
      "feature": 8830,
      "esis": 8831,
      ")**": 8832,
      "lat": 8833,
      "ĠSing": 8834,
      "ova": 8835,
      "aired": 8836,
      "ĠMer": 8837,
      "Ġrhyth": 8838,
      "oston": 8839,
      "Ġplenty": 8840,
      "ERS": 8841,
      "Ġmeasurements": 8842,
      "Ġsharp": 8843,
      "Ġcrow": 8844,
      "ĠWindows": 8845,
      "ĠLib": 8846,
      "Ġextend": 8847,
      "Ġcarb": 8848,
      "Ġvariations": 8849,
      "Ġchoosing": 8850,
      "Ġphoto": 8851,
      "Cons": 8852,
      "heimer": 8853,
      "ĠRom": 8854,
      "Ġtraits": 8855,
      "ĠChristianity": 8856,
      "itual": 8857,
      "Ġpin": 8858,
      "Ġreput": 8859,
      "ĠImage": 8860,
      "front": 8861,
      "atal": 8862,
      "ulpt": 8863,
      "Ġstroke": 8864,
      "Ġcompost": 8865,
      "note": 8866,
      "Ġdanger": 8867,
      "ĠSystems": 8868,
      "Throughout": 8869,
      "ĠDisease": 8870,
      "seq": 8871,
      "ĠLincoln": 8872,
      "rating": 8873,
      "istical": 8874,
      "aved": 8875,
      "Ġtimeout": 8876,
      "Ġenumerate": 8877,
      "tools": 8878,
      "Ġphysics": 8879,
      "ĠPC": 8880,
      "Ġscal": 8881,
      "Ġconfront": 8882,
      "Qt": 8883,
      "Ġtick": 8884,
      "Ġ(-": 8885,
      "Ġintense": 8886,
      "Ġconfirm": 8887,
      "Ġcelebrate": 8888,
      "safe": 8889,
      "isp": 8890,
      "arness": 8891,
      "Ġprocessed": 8892,
      "dirname": 8893,
      "ĠStrateg": 8894,
      "Ġcounsel": 8895,
      "eties": 8896,
      "images": 8897,
      "Ġ'<": 8898,
      "Ġanth": 8899,
      "Ġaccurately": 8900,
      "Ġille": 8901,
      "abil": 8902,
      "ĠNever": 8903,
      "Ġregister": 8904,
      "assertFalse": 8905,
      "Ġlegs": 8906,
      "Ġstorytelling": 8907,
      "IGHT": 8908,
      "Ġhypothes": 8909,
      "itals": 8910,
      "Ġalert": 8911,
      "ĠIntegr": 8912,
      "Prov": 8913,
      "Ġvolcan": 8914,
      "Ġcleaning": 8915,
      "ĠSpecial": 8916,
      "SER": 8917,
      "Ġtact": 8918,
      "ndarray": 8919,
      "Ġpuzz": 8920,
      "ieval": 8921,
      "Ġuniversity": 8922,
      "'})": 8923,
      "Sp": 8924,
      "opes": 8925,
      "ustain": 8926,
      "convert": 8927,
      "Ġrivers": 8928,
      "Ġcoastal": 8929,
      "Ġstakeholders": 8930,
      "Ġbinary": 8931,
      "unning": 8932,
      "Ġproductivity": 8933,
      "Ġordinary": 8934,
      "best": 8935,
      "Ġtip": 8936,
      "ĠEqu": 8937,
      "Ġlogic": 8938,
      "ACK": 8939,
      "Ġnob": 8940,
      "Ġgone": 8941,
      "Ġcompens": 8942,
      "Ġpromise": 8943,
      "Ġaddresses": 8944,
      "Ġhardware": 8945,
      "loss": 8946,
      "zil": 8947,
      "forward": 8948,
      "esterol": 8949,
      "Am": 8950,
      "neg": 8951,
      "Ġentered": 8952,
      "Ġcaptivating": 8953,
      "Ġdispos": 8954,
      "Ġhappiness": 8955,
      "Ġcontained": 8956,
      "Ġsoph": 8957,
      "Ġresid": 8958,
      "Ġminimal": 8959,
      "Ġconstraints": 8960,
      "ĠPolicy": 8961,
      "Ob": 8962,
      "Ġlicense": 8963,
      "ĠSpe": 8964,
      "ĠBig": 8965,
      "Ġreporting": 8966,
      "Ġterritory": 8967,
      "Nodes": 8968,
      "Ġstatic": 8969,
      "ĠPass": 8970,
      "ura": 8971,
      "Ġaggreg": 8972,
      "Ġwouldn": 8973,
      "everal": 8974,
      "cfop": 8975,
      "KEY": 8976,
      "~~": 8977,
      "outer": 8978,
      "Ġmoon": 8979,
      "ushed": 8980,
      "Ġcountless": 8981,
      "Ġhorses": 8982,
      "Ġsubs": 8983,
      "Ġprobability": 8984,
      "Ġorgans": 8985,
      "ĠIll": 8986,
      "ppe": 8987,
      "argv": 8988,
      "Ġactively": 8989,
      "Ġmolecular": 8990,
      "Manager": 8991,
      "Sm": 8992,
      "Ġbatch": 8993,
      "amins": 8994,
      "ĠEU": 8995,
      "conn": 8996,
      "events": 8997,
      "Ġexhibit": 8998,
      "aver": 8999,
      "dated": 9000,
      "Ġcooling": 9001,
      "pattern": 9002,
      "changes": 9003,
      "bind": 9004,
      "pres": 9005,
      "warn": 9006,
      "usal": 9007,
      "Ġplate": 9008,
      "ĠItalian": 9009,
      "ĠReview": 9010,
      "ĠWill": 9011,
      "Ġ----": 9012,
      "Ġped": 9013,
      "Ġfu": 9014,
      "acies": 9015,
      "ĠHaw": 9016,
      "Ġcorrel": 9017,
      "Ġgram": 9018,
      "ĠAppro": 9019,
      "Ġprohib": 9020,
      "Ġdepart": 9021,
      "ĠJohnson": 9022,
      "Ġunusual": 9023,
      "DP": 9024,
      "avery": 9025,
      "Ġtension": 9026,
      "Ġsad": 9027,
      "Ġbehaviour": 9028,
      "Ġschedul": 9029,
      "Ġstere": 9030,
      "opts": 9031,
      "Ġheating": 9032,
      "asters": 9033,
      "Ġassume": 9034,
      "Ġpsychology": 9035,
      "ĠServices": 9036,
      "Ġflexibility": 9037,
      "amine": 9038,
      "ostic": 9039,
      "js": 9040,
      "ĠPART": 9041,
      "ĠBur": 9042,
      "ureau": 9043,
      "created": 9044,
      "Ġrespectively": 9045,
      "pdf": 9046,
      "ipher": 9047,
      "Ġunity": 9048,
      "Ġauthentic": 9049,
      "oop": 9050,
      "Ġsampl": 9051,
      "amination": 9052,
      "Ġgently": 9053,
      "limit": 9054,
      "ĠParty": 9055,
      "Ġbattery": 9056,
      "Pub": 9057,
      "orate": 9058,
      "Ġforg": 9059,
      "ĠFil": 9060,
      "ĠLast": 9061,
      "earchers": 9062,
      "Ġsitting": 9063,
      "element": 9064,
      "ĠPan": 9065,
      "ocate": 9066,
      "properties": 9067,
      "Ġended": 9068,
      "Ġcombine": 9069,
      "Ġencouraged": 9070,
      "uate": 9071,
      "ĠFamily": 9072,
      "Ġchecks": 9073,
      "Ġguard": 9074,
      "LL": 9075,
      "ĠViet": 9076,
      "Ġredist": 9077,
      "Ge": 9078,
      "Ġcort": 9079,
      "ICE": 9080,
      "Gui": 9081,
      "Ġcaught": 9082,
      "Art": 9083,
      "Ġemphasis": 9084,
      "Are": 9085,
      "Post": 9086,
      "ouble": 9087,
      "cloud": 9088,
      "Ġcovers": 9089,
      "Ġcoverage": 9090,
      "Ġdetected": 9091,
      "Ġprotective": 9092,
      "Ġawait": 9093,
      "Lear": 9094,
      "Ġestimate": 9095,
      "Ġcaptured": 9096,
      "Mat": 9097,
      "rog": 9098,
      "iratory": 9099,
      "Ġlegacy": 9100,
      "Ġmeasurement": 9101,
      "master": 9102,
      "ĠBank": 9103,
      "ĠEvent": 9104,
      "Ġformula": 9105,
      "Search": 9106,
      "sex": 9107,
      "Ġresist": 9108,
      "Ġbias": 9109,
      "Ġsafely": 9110,
      "Ġcolonial": 9111,
      "complete": 9112,
      "ĠRichard": 9113,
      "zheimer": 9114,
      "prop": 9115,
      "Button": 9116,
      "Ġcarrying": 9117,
      "Oper": 9118,
      "Ġconn": 9119,
      "ĠCode": 9120,
      "Ġtrauma": 9121,
      "Ġaudio": 9122,
      "original": 9123,
      "Code": 9124,
      "SO": 9125,
      "irds": 9126,
      "buffer": 9127,
      "ĠMa": 9128,
      "ĠWall": 9129,
      "Ġrocks": 9130,
      "Ġmemories": 9131,
      "Ġtrouble": 9132,
      "American": 9133,
      "Ġsport": 9134,
      "Ġbrush": 9135,
      "Ġachieving": 9136,
      "Ġbringing": 9137,
      "Ġprecision": 9138,
      "itz": 9139,
      "Ġabandon": 9140,
      "Ġcalling": 9141,
      "NESS": 9142,
      "Vari": 9143,
      "bot": 9144,
      "ĠChic": 9145,
      "Ġkeeps": 9146,
      "Ġprecise": 9147,
      "Ġexplanation": 9148,
      "otton": 9149,
      "cipl": 9150,
      "Ġhistoric": 9151,
      "Ġfairly": 9152,
      "(__": 9153,
      "Ġvel": 9154,
      "Ġneither": 9155,
      "Ġdepartment": 9156,
      "Ġadvances": 9157,
      "Ġbiggest": 9158,
      "ĠMad": 9159,
      "ĠPlease": 9160,
      "Ġresident": 9161,
      "Today": 9162,
      "itarian": 9163,
      "extend": 9164,
      "UM": 9165,
      "Ġdisabilities": 9166,
      "Ġoutbreak": 9167,
      "ĠClimate": 9168,
      "Arg": 9169,
      "Ġexecution": 9170,
      "ĠGuide": 9171,
      "ĠAustralian": 9172,
      "Ne": 9173,
      "Ġspl": 9174,
      "amma": 9175,
      "ĠTable": 9176,
      "Ġintensity": 9177,
      "Ġpatience": 9178,
      "Ġminerals": 9179,
      "Ġnavigating": 9180,
      "Ġvoices": 9181,
      "Ġelection": 9182,
      "Ġdesert": 9183,
      "brid": 9184,
      "ailing": 9185,
      "airy": 9186,
      "Ġbigger": 9187,
      "ULAR": 9188,
      "Ġpapers": 9189,
      "elfare": 9190,
      "creen": 9191,
      "Ġdiagnosed": 9192,
      "iture": 9193,
      "ĊĊĠĠĠĠĠ": 9194,
      "Ġtwenty": 9195,
      "Ã¼": 9196,
      "role": 9197,
      "ĠThough": 9198,
      "cfg": 9199,
      "Ġvarying": 9200,
      "rey": 9201,
      "utch": 9202,
      "Ġhem": 9203,
      "ĠBusiness": 9204,
      "ĠStat": 9205,
      "Ġrelief": 9206,
      "iodiversity": 9207,
      "Ġcontributes": 9208,
      "Ġimprovements": 9209,
      "earing": 9210,
      "ĠKh": 9211,
      "Ġclassic": 9212,
      "Ġrecognizing": 9213,
      "ĠMichael": 9214,
      "mac": 9215,
      "ĠWorks": 9216,
      "Ġscr": 9217,
      "ificate": 9218,
      "lik": 9219,
      "guard": 9220,
      "ih": 9221,
      "HD": 9222,
      "ested": 9223,
      "Ġalive": 9224,
      "ĠBoston": 9225,
      "ributed": 9226,
      "Ġobservation": 9227,
      "rapeutic": 9228,
      ".|": 9229,
      "Hist": 9230,
      "invalid": 9231,
      "ĠĠĠĠĠĠĠĠĠĠĠĠ": 9232,
      "Ġnine": 9233,
      "Ġdispl": 9234,
      "Ġfounded": 9235,
      "ĠSuper": 9236,
      "Ġupdates": 9237,
      "Ġod": 9238,
      "Ġfell": 9239,
      "Ġcolour": 9240,
      "Ġhighlights": 9241,
      "Ġbalanced": 9242,
      "Ġecological": 9243,
      "Ġexpanding": 9244,
      "Ġimagination": 9245,
      "nan": 9246,
      "route": 9247,
      "Ġidentification": 9248,
      "commit": 9249,
      "Ġdefense": 9250,
      "Ġtemporary": 9251,
      "Ġdriven": 9252,
      "plicate": 9253,
      "Ġintegrity": 9254,
      "document": 9255,
      "Ġopinions": 9256,
      "once": 9257,
      "ctx": 9258,
      "Ġconsume": 9259,
      "Process": 9260,
      "Ġmagnetic": 9261,
      "friendly": 9262,
      "Ġfer": 9263,
      "aration": 9264,
      "Ġadvert": 9265,
      "Ġstruggles": 9266,
[...]
